{
  "faber": 21720,
  "bones": 5944,
  "caden": 23600,
  "colchester": 20115,
  "##sho": 22231,
  "caretaker": 17600,
  "ュ": 1729,
  "boost": 12992,
  "premium": 12882,
  "hawthorne": 23440,
  "##ove": 21818,
  "companion": 7452,
  "##π": 29731,
  "morton": 11164,
  "byrne": 14928,
  "high": 2152,
  "notice": 5060,
  "म": 1331,
  "norm": 13373,
  "##ret": 13465,
  "pennsylvania": 3552,
  "fans": 4599,
  "##neas": 26737,
  "##izing": 6026,
  "congregation": 7769,
  "valued": 11126,
  "confused": 5457,
  "wishing": 10261,
  "##10": 10790,
  "opposition": 4559,
  "beth": 7014,
  "##mberg": 29084,
  "replicate": 28024,
  "shattering": 21797,
  "counts": 9294,
  "pact": 14790,
  "##ffen": 18032,
  "##bl": 16558,
  "talented": 10904,
  "پ": 1302,
  "zionist": 21379,
  "ending": 4566,
  "postseason": 17525,
  "##pes": 10374,
  "edmund": 9493,
  "barefoot": 22985,
  "normal": 3671,
  "commuted": 26704,
  "whore": 17219,
  "jay": 6108,
  "syntax": 20231,
  "gift": 5592,
  "quivering": 26012,
  "arched": 9194,
  "##rth": 15265,
  "condemning": 28525,
  "##tius": 22638,
  "offerings": 14927,
  "upward": 10745,
  "##connected": 24230,
  "youtube": 7858,
  "atrocities": 23482,
  "embankment": 22756,
  "##osaurus": 25767,
  "み": 1678,
  "saying": 3038,
  "legislative": 4884,
  "edged": 13011,
  "##rata": 14660,
  "##ndo": 15482,
  "49th": 25726,
  "##lysis": 26394,
  "discontent": 27648,
  "##lism": 28235,
  "type": 2828,
  "##↓": 30114,
  "transported": 9687,
  "quran": 21288,
  "appearances": 3922,
  "intellect": 24823,
  "uploaded": 21345,
  "##州": 30362,
  "der": 4315,
  "swat": 25414,
  "chow": 20209,
  "appropriately": 23263,
  "flawless": 27503,
  "collections": 6407,
  "[unused492]": 497,
  "##！": 30512,
  "edmond": 21773,
  "[unused305]": 310,
  "motion": 4367,
  "daze": 28918,
  "researching": 20059,
  "trucks": 9322,
  "wanda": 20848,
  "apprehension": 25809,
  "chew": 21271,
  "aberdeen": 12080,
  "targeting": 14126,
  "##14": 16932,
  "hardy": 9532,
  "paradigm": 20680,
  "correspondence": 11061,
  "cards": 5329,
  "##辶": 30482,
  "gloria": 10778,
  "called": 2170,
  "luisa": 25412,
  "[unused501]": 506,
  "335": 24426,
  "protesters": 13337,
  "acquisition": 7654,
  "embarrassing": 16436,
  "conditional": 18462,
  "##meric": 25531,
  "trainers": 21992,
  "policies": 6043,
  "inches": 5282,
  "worms": 16253,
  "peruvian": 15432,
  "lazy": 13971,
  "henrik": 18745,
  "##ums": 18163,
  "reared": 23295,
  "##ᅢ": 30007,
  "sequels": 25815,
  "equals": 19635,
  "saturdays": 18860,
  "create": 3443,
  "interactive": 9123,
  "##男": 30438,
  "crystal": 6121,
  "insist": 18292,
  "##oke": 11045,
  "orange": 4589,
  "disappointment": 10520,
  "spend": 5247,
  "leaned": 4016,
  "lifestyle": 9580,
  "revealing": 8669,
  "arena": 5196,
  "halifax": 10475,
  "[unused362]": 367,
  "alfredo": 19423,
  "rover": 13631,
  "determine": 5646,
  "sunken": 23470,
  "network": 2897,
  "neo": 9253,
  "welcoming": 18066,
  "want": 2215,
  "schooner": 21567,
  "communicate": 10639,
  "fumble": 19576,
  "redesign": 25136,
  "graduates": 10845,
  "fifa": 5713,
  "kicker": 22652,
  "shows": 3065,
  "handle": 5047,
  "window": 3332,
  "570": 24902,
  "##sch": 11624,
  "##runa": 26605,
  "ensign": 19890,
  "gossip": 13761,
  "burning": 5255,
  "africa": 3088,
  "syrian": 9042,
  "instincts": 16160,
  "insisting": 22604,
  "304": 23859,
  "dynamo": 17205,
  "refuge": 9277,
  "patch": 8983,
  "sunny": 11559,
  "yards": 4210,
  "family": 2155,
  "##itch": 20189,
  "##words": 22104,
  "montevideo": 22460,
  "pioneering": 13280,
  "[unused490]": 495,
  "suffered": 4265,
  "050": 28714,
  "guise": 21980,
  "[unused615]": 620,
  "pearl": 7247,
  "##sie": 11741,
  "presiding": 18131,
  "kindergarten": 11793,
  "aspect": 7814,
  "##pura": 21228,
  "chopper": 28057,
  "colts": 14390,
  "owing": 11427,
  "jane": 4869,
  "javanese": 27344,
  "1840": 8905,
  "strongly": 6118,
  "decision": 3247,
  "waits": 18074,
  "regulating": 21575,
  "##hip": 5605,
  "worse": 4788,
  "standardization": 28648,
  "neural": 15756,
  "feng": 19004,
  "sophia": 9665,
  "jesuits": 20297,
  "selecting": 17739,
  "ashore": 16145,
  "disclosed": 21362,
  "mist": 11094,
  "oldest": 4587,
  "applied": 4162,
  "militants": 17671,
  "lets": 11082,
  "independence": 4336,
  "##lish": 13602,
  "depictions": 20818,
  "comprehend": 22346,
  "huron": 21899,
  "receptors": 13833,
  "sheldon": 19369,
  "alike": 11455,
  "cats": 8870,
  "clement": 12223,
  "wnba": 25554,
  "##mb": 14905,
  "cryptic": 26483,
  "ambition": 16290,
  "##rle": 20927,
  "manipulation": 16924,
  "regaining": 28657,
  "##rita": 17728,
  "bunker": 15742,
  "goat": 13555,
  "dodd": 21258,
  "た": 1661,
  "drills": 28308,
  "taekwondo": 28529,
  "ashamed": 14984,
  "##う": 30174,
  "robbed": 20114,
  "##nu": 11231,
  "duke": 3804,
  "liberation": 7931,
  "aura": 15240,
  "161": 17365,
  "merry": 12831,
  "mcgee": 22034,
  "##ming": 6562,
  "giving": 3228,
  "beard": 10154,
  "missed": 4771,
  "negotiation": 19905,
  "patna": 29565,
  "##dora": 24562,
  "requirement": 9095,
  "1976": 3299,
  "##lists": 27103,
  "„": 1525,
  "safari": 23591,
  "reinforce": 19444,
  "[unused409]": 414,
  "effective": 4621,
  "##uo": 19098,
  "##ocation": 23909,
  "naked": 6248,
  "4a": 26424,
  "murals": 19016,
  "##eng": 13159,
  "babe": 11561,
  "modulation": 25502,
  "diagnostic": 16474,
  "knocks": 21145,
  "國": 1800,
  "departmental": 28912,
  "denise": 15339,
  "salzburg": 18369,
  "denim": 26762,
  "tenure": 7470,
  "261": 24441,
  "1990": 2901,
  "strides": 22215,
  "bud": 13007,
  "hardwood": 23165,
  "violations": 13302,
  "camp": 3409,
  "reductions": 25006,
  "##odes": 19847,
  "mercantile": 25420,
  "confession": 12633,
  "##ool": 13669,
  "appeals": 9023,
  "bike": 7997,
  "polgara": 27041,
  "##written": 15773,
  "neptune": 21167,
  "hop": 6154,
  "flashbacks": 28945,
  "aerial": 9682,
  "philippines": 5137,
  "thing": 2518,
  "armoured": 11104,
  "sniffing": 27646,
  "signaling": 14828,
  "hey": 4931,
  "tatum": 25913,
  "notwithstanding": 26206,
  "autumn": 7114,
  "##ン": 30263,
  "233": 22115,
  "babu": 20948,
  "enforcing": 27455,
  "biceps": 27947,
  "shaded": 25273,
  "disappearing": 14489,
  "sequences": 10071,
  "500": 3156,
  "exploitation": 14427,
  "testosterone": 25937,
  "ladies": 6456,
  "geometridae": 24687,
  "##gger": 13327,
  "javier": 13824,
  "8": 1022,
  "[unused850]": 855,
  "poznan": 18320,
  "犬": 1908,
  "as": 2004,
  "##sle": 25016,
  "stephanie": 11496,
  "essence": 11305,
  "zimmerman": 27946,
  "utility": 9710,
  "clit": 17962,
  "[unused849]": 854,
  "##efined": 28344,
  "monde": 23117,
  "##陽": 30499,
  "stretching": 10917,
  "##bling": 9709,
  "ecclesiastical": 12301,
  "slump": 28702,
  "willy": 16172,
  "slabs": 28761,
  "hilary": 22744,
  "detrimental": 29172,
  "enjoyable": 22249,
  "##class": 26266,
  "##ನ": 29936,
  "[unused93]": 94,
  "nexus": 26041,
  "excited": 7568,
  "pubs": 23598,
  "##borg": 11755,
  "shootout": 18297,
  "##oka": 12352,
  "series": 2186,
  "prefers": 19233,
  "bun": 21122,
  "consciousness": 8298,
  "bibliography": 24751,
  "saxony": 13019,
  "##ら": 30211,
  "version": 2544,
  "##nous": 18674,
  "##41": 23632,
  "tingling": 23690,
  "gravely": 28070,
  "zurich": 10204,
  "macro": 26632,
  "##ɲ": 29689,
  "brest": 22451,
  "mathias": 20494,
  "stimulated": 25194,
  "myles": 27056,
  "aware": 5204,
  "##hl": 7317,
  "sealed": 10203,
  "nomadic": 21702,
  "fiscal": 10807,
  "1758": 16832,
  "meaningful": 15902,
  "boca": 22765,
  "[unused37]": 38,
  "##aki": 8978,
  "[unused441]": 446,
  "knox": 11994,
  "chain": 4677,
  "hydrogen": 9732,
  "booming": 24716,
  "sid": 15765,
  "olive": 9724,
  "starting": 3225,
  "[unused30]": 31,
  "##!": 29612,
  "primary": 3078,
  "##dio": 20617,
  "q": 1053,
  "transfers": 15210,
  "##ue": 5657,
  "##cko": 19665,
  "small": 2235,
  "barre": 23189,
  "jointly": 10776,
  "cloak": 11965,
  "hates": 16424,
  "evan": 9340,
  "practitioners": 14617,
  "squirrel": 18197,
  "brandon": 8825,
  "massive": 5294,
  "##torium": 24390,
  "##₊": 30086,
  "sixth": 4369,
  "ecumenical": 23540,
  "waved": 7147,
  "##dity": 25469,
  "julia": 6423,
  "speechless": 25146,
  "portals": 27388,
  "hannibal": 24181,
  "shrub": 15751,
  "availability": 11343,
  "bastard": 8444,
  "ignored": 6439,
  "##rea": 16416,
  "petersen": 22615,
  "##mers": 16862,
  "##iec": 23783,
  "angrily": 14136,
  "preliminary": 8824,
  "death": 2331,
  "mass": 3742,
  "rainforest": 18951,
  "ruled": 5451,
  "provinces": 6941,
  "focusing": 7995,
  "##ण": 29858,
  "##kam": 27052,
  "compiled": 9227,
  "wooden": 4799,
  "annexation": 18985,
  "rooms": 4734,
  "takes": 3138,
  "peeled": 20956,
  "##men": 3549,
  "haiti": 12867,
  "##rsten": 19020,
  "divinity": 16968,
  "viable": 14874,
  "##uke": 15851,
  "mirage": 21483,
  "volumes": 6702,
  "whistle": 13300,
  "floral": 18686,
  "hal": 11085,
  "houses": 3506,
  "alberta": 7649,
  "##iidae": 15648,
  "greens": 15505,
  "venerable": 24541,
  "growls": 27825,
  "##baum": 14898,
  "generosity": 26161,
  "sylvie": 26009,
  "sherry": 22268,
  "##stov": 29473,
  "1b": 26314,
  "tomb": 8136,
  "##タ": 30235,
  "syndrome": 8715,
  "knit": 22404,
  "lipstick": 22359,
  "kindness": 16056,
  "।": 1344,
  "multi": 4800,
  "apple": 6207,
  "distracting": 25012,
  "madagascar": 11934,
  "sporting": 7419,
  "##ch": 2818,
  "differentiation": 20582,
  "frankie": 12784,
  "[unused503]": 508,
  "unlocked": 14058,
  "crossings": 20975,
  "##rling": 22036,
  "grounds": 5286,
  "ə": 1114,
  "138": 15028,
  "##vet": 19510,
  "‖": 1519,
  "withdraw": 10632,
  "baritone": 14458,
  "outburst": 27719,
  "accreditation": 14893,
  "outlawed": 29131,
  "##aha": 23278,
  "figurative": 29407,
  "hassan": 13222,
  "##litz": 24725,
  "include": 2421,
  "ik": 20912,
  "evolving": 20607,
  "##rium": 18802,
  "corresponding": 7978,
  "muffled": 15783,
  "eye": 3239,
  "afforded": 22891,
  "doubt": 4797,
  "oath": 11292,
  "barangay": 20937,
  "bribe": 26470,
  "##ides": 8621,
  "stewart": 5954,
  "vacancy": 15619,
  "405": 23988,
  "tales": 7122,
  "##kura": 28260,
  "manitoba": 10512,
  "superstar": 18795,
  "selfish": 14337,
  "learners": 26262,
  "provider": 10802,
  "penny": 10647,
  "standard": 3115,
  "arrival": 5508,
  "rhythmic": 14797,
  "[unused31]": 32,
  "tubular": 25147,
  "conceded": 15848,
  "tbilisi": 22406,
  "1620": 24259,
  "scholar": 6288,
  "singapore": 5264,
  "prospect": 9824,
  "##tya": 21426,
  "##ilde": 23891,
  "deeper": 6748,
  "riddle": 21834,
  "##bour": 25127,
  "pharaoh": 22089,
  "treacherous": 26648,
  "[unused107]": 112,
  "chimed": 27460,
  "[unused160]": 165,
  "##tium": 16398,
  "josephine": 16117,
  "functions": 4972,
  "luftwaffe": 17740,
  "bobbed": 29579,
  "three": 2093,
  "rodrigo": 18943,
  "seduce": 23199,
  "mathew": 25436,
  "huge": 4121,
  "affected": 5360,
  "semifinals": 8565,
  "##chai": 24925,
  "watching": 3666,
  "powers": 4204,
  "##郡": 30485,
  "##∆": 30122,
  "[unused634]": 639,
  "shadowed": 25843,
  "##འ": 29969,
  "underground": 5230,
  "stomped": 21918,
  "prospects": 16746,
  "]": 1033,
  "park": 2380,
  "##dev": 24844,
  "riots": 12925,
  "##grate": 22780,
  "##sse": 11393,
  "##economic": 23035,
  "hadn": 2910,
  "river": 2314,
  "[unused423]": 428,
  "##stic": 10074,
  "##view": 8584,
  "##た": 30187,
  "1867": 7517,
  "1779": 17616,
  "manufactured": 7609,
  "##quil": 26147,
  "wherein": 16726,
  "##cave": 27454,
  "folded": 6999,
  "[unused403]": 408,
  "navigable": 28538,
  "implemented": 7528,
  "1862": 6889,
  "##bio": 26282,
  "mediated": 19872,
  "stricken": 16654,
  "229": 22777,
  "replacement": 6110,
  "##ritan": 25279,
  "[unused477]": 482,
  "tribes": 6946,
  "1847": 9176,
  "rejected": 5837,
  "ankles": 15392,
  "expelled": 10016,
  "ammunition": 9290,
  "victories": 9248,
  "##rf": 12881,
  "comparisons": 18539,
  "hideout": 29588,
  "strikes": 9326,
  "manually": 21118,
  "kissed": 4782,
  "##ady": 18632,
  "scouting": 14299,
  "diaspora": 18239,
  "suppress": 16081,
  "passages": 13768,
  "pivotal": 20369,
  "deliberately": 9969,
  "[unused83]": 84,
  "qualifiers": 18956,
  "1745": 21809,
  "hatch": 11300,
  "phases": 12335,
  "hinted": 21795,
  "lough": 29504,
  "attaining": 26615,
  "brick": 5318,
  "occupational": 16928,
  "routed": 19578,
  "shuffled": 18764,
  "ר": 1265,
  "liberal": 4314,
  "10": 2184,
  "ruth": 7920,
  "bruised": 18618,
  "creating": 4526,
  "erik": 10240,
  "kitchener": 27154,
  "crawled": 12425,
  "adjective": 24931,
  "stream": 5460,
  "示": 1923,
  "##outs": 12166,
  "erika": 24900,
  "1903": 5778,
  "dj": 6520,
  "bony": 22678,
  "right": 2157,
  "applause": 20737,
  "loch": 14941,
  "##books": 17470,
  "pereira": 23857,
  "structural": 8332,
  "salisbury": 13817,
  "##ᆫ": 30021,
  "jesse": 7627,
  "variety": 3528,
  "ga": 11721,
  "lowering": 13845,
  "pass": 3413,
  "derivation": 29280,
  "dexter": 14375,
  "lending": 18435,
  "α": 1155,
  "##ᅵ": 30019,
  "detention": 12345,
  "motown": 22654,
  "mind": 2568,
  "##inal": 13290,
  "mozart": 13177,
  "shoulders": 4065,
  "erroneously": 29411,
  "[unused16]": 17,
  "converse": 23705,
  "##an": 2319,
  "violence": 4808,
  "buddhist": 7992,
  "portuguese": 5077,
  "technologies": 6786,
  "seconds": 3823,
  "introduction": 4955,
  "twisted": 6389,
  "whenever": 7188,
  "##zh": 27922,
  "kelly": 5163,
  "howling": 22298,
  "consists": 3774,
  "visiting": 5873,
  "sylvia": 13378,
  "geographically": 20969,
  "revolutions": 25239,
  "##pan": 9739,
  "organist": 16397,
  "events": 2824,
  "pistons": 24399,
  "surviving": 6405,
  "[unused168]": 173,
  "wardrobe": 17828,
  "shepherd": 11133,
  "[unused280]": 285,
  "titled": 4159,
  "dealings": 24069,
  "louisville": 11577,
  "germain": 19192,
  "cameras": 8629,
  "bert": 14324,
  "belgarath": 21256,
  "catastrophe": 25539,
  "broadway": 5934,
  "robyn": 28047,
  "landon": 20642,
  "hurrying": 27951,
  "nrl": 20686,
  "arguing": 9177,
  "swallow": 10577,
  "change": 2689,
  "curiosity": 10628,
  "##et": 3388,
  "battlefield": 11686,
  "pity": 12063,
  "[unused505]": 510,
  "identifying": 12151,
  "##field": 3790,
  "##λ": 29727,
  "php": 25718,
  "[unused111]": 116,
  "pierce": 9267,
  "##bow": 18912,
  "peeking": 28222,
  "newest": 14751,
  "kissing": 7618,
  "characterised": 17253,
  "inch": 4960,
  "##cona": 24366,
  "clearer": 24509,
  "jr": 3781,
  "unusual": 5866,
  "[unused271]": 276,
  "november": 2281,
  "welcome": 6160,
  "extract": 14817,
  "kumar": 9600,
  "70th": 26934,
  "emitted": 22627,
  "depend": 12530,
  "negotiate": 13676,
  "rainbow": 10098,
  "inflation": 14200,
  "easton": 21636,
  "approached": 5411,
  "alsace": 24922,
  "urgency": 19353,
  "##軍": 30481,
  "nak": 17823,
  "mecklenburg": 22007,
  "circulated": 17640,
  "assemble": 21365,
  "##39": 23499,
  "##raction": 25533,
  "hs": 26236,
  "mouthful": 28462,
  "sleeves": 15114,
  "##aly": 20766,
  "repair": 7192,
  "chester": 8812,
  "##ulously": 21227,
  "fatigue": 16342,
  "##ructured": 26134,
  "size": 2946,
  "cheeks": 6029,
  "brewery": 12161,
  "fitzpatrick": 26249,
  "青": 1975,
  "shaky": 15311,
  "document": 6254,
  "ᅵ": 1483,
  "unless": 4983,
  "abroad": 6917,
  "##ilo": 22360,
  "1709": 28955,
  "##uli": 15859,
  "battling": 17773,
  "cozy": 26931,
  "##pur": 5311,
  "compatible": 11892,
  "##mpton": 26793,
  "ರ": 1401,
  "courses": 5352,
  "tigers": 7600,
  "tempest": 22553,
  "trout": 13452,
  "hard": 2524,
  "displaying": 14962,
  "寺": 1827,
  "calculus": 19276,
  "gritted": 17307,
  "ʂ": 1129,
  "extraction": 14676,
  "[unused912]": 917,
  "prevailed": 19914,
  "dutton": 28784,
  "doi": 9193,
  "flicker": 17909,
  "collective": 7268,
  "irwin": 17514,
  "ђ": 1211,
  "interpreter": 19555,
  "genie": 22519,
  "248": 24568,
  "pavement": 14271,
  "romeo": 12390,
  "owned": 3079,
  "genesis": 11046,
  "1000": 6694,
  "bothered": 11250,
  "degrees": 5445,
  "katy": 17870,
  "weighed": 12781,
  "salman": 28542,
  "cockpit": 13828,
  "##nami": 28987,
  "ebert": 22660,
  "barry": 6287,
  "179": 20311,
  "125": 8732,
  "emma": 5616,
  "##lier": 14355,
  "michelangelo": 27701,
  "scully": 25686,
  "wadi": 28380,
  "##tale": 22059,
  "##works": 9316,
  "diagrams": 26309,
  "prototype": 8773,
  "frightened": 10363,
  "hammering": 27883,
  "外": 1809,
  "geschichte": 28299,
  "celestial": 17617,
  "##lice": 13231,
  "passive": 13135,
  "creed": 16438,
  "ք": 1239,
  "hannover": 29209,
  "relied": 13538,
  "expenses": 11727,
  "serves": 4240,
  "##gun": 12734,
  "##shah": 25611,
  "cosmic": 14448,
  "##vsky": 15904,
  "refurbishment": 24478,
  "博": 1786,
  "##aris": 23061,
  "civilians": 9272,
  "orchid": 15573,
  "भ": 1330,
  "##福": 30452,
  "assistants": 16838,
  "intriguing": 23824,
  "sing": 6170,
  "pu": 16405,
  "downloaded": 22817,
  "##星": 30392,
  "[unused84]": 85,
  "stole": 10312,
  "margins": 17034,
  "風": 1977,
  "skins": 21049,
  "maynard": 22130,
  "wolff": 23498,
  "pulls": 8005,
  "cancers": 25409,
  "##andra": 29159,
  "abdomen": 13878,
  "##iri": 15735,
  "##rove": 17597,
  "victorian": 6652,
  "atp": 12649,
  "squares": 14320,
  "##″": 30067,
  "harness": 17445,
  "##rac": 22648,
  "allegro": 25319,
  "1752": 24736,
  "broader": 12368,
  "thy": 15177,
  "##ype": 18863,
  "strapped": 18019,
  "csi": 22174,
  "futuristic": 28971,
  "##yo": 7677,
  "##ハ": 30244,
  "##>": 29631,
  "mechanisms": 10595,
  "thailand": 6504,
  "announcer": 14073,
  "namely": 8419,
  "hoarse": 21221,
  "[unused88]": 89,
  "welcomed": 10979,
  "##frey": 22586,
  "fastest": 7915,
  "sweetness": 23210,
  "friday": 5958,
  "consult": 23363,
  "railing": 15747,
  "traps": 16735,
  "##jected": 24455,
  "dukes": 16606,
  "1886": 6929,
  "judgement": 16646,
  "[unused144]": 149,
  "entries": 10445,
  "nassau": 14646,
  "input": 7953,
  "propulsion": 16404,
  "##bilities": 14680,
  "##erik": 27350,
  "dalai": 28511,
  "consumed": 10202,
  "samuel": 5212,
  ".": 1012,
  "pursuits": 23719,
  "pudding": 29593,
  "bats": 12236,
  "scale": 4094,
  "##vial": 18660,
  "##ந": 29922,
  "fungus": 16622,
  "[unused678]": 683,
  "markedly": 29295,
  "combustion": 16513,
  "rim": 11418,
  "ᵢ": 1507,
  "denial": 14920,
  "##linger": 23101,
  "[unused905]": 910,
  "##mani": 20799,
  "intrinsic": 23807,
  "[unused259]": 264,
  "servicing": 26804,
  "1969": 3440,
  "mural": 15533,
  "campaigns": 8008,
  "wii": 16568,
  "veracruz": 23741,
  "gerais": 29220,
  "##o": 2080,
  "challenger": 12932,
  "fuscous": 18121,
  "ferries": 20157,
  "filmmaker": 12127,
  "spanned": 18212,
  "compact": 9233,
  "[unused961]": 966,
  "instructor": 9450,
  "purchasing": 13131,
  "sum": 7680,
  "##gawa": 21188,
  "written": 2517,
  "[unused443]": 448,
  "##enes": 28553,
  "considering": 6195,
  "##w": 2860,
  "##isto": 20483,
  "horseshoe": 23449,
  "completion": 6503,
  "droplets": 27126,
  "affirmative": 27352,
  "thong": 27468,
  "trafford": 26894,
  "custer": 28888,
  "[unused951]": 956,
  "rowland": 20539,
  "transmit": 19818,
  "simplest": 21304,
  "##‰": 30065,
  "ca": 6187,
  "biennial": 20313,
  "subtropical": 11935,
  "incidence": 18949,
  "conservatory": 11879,
  "distressed": 24305,
  "fingered": 28842,
  "##nator": 27413,
  "ssr": 20896,
  "surrendered": 10795,
  "italianate": 25302,
  "tribe": 5917,
  "confuse": 28679,
  "с": 1196,
  "militia": 8396,
  "fender": 19028,
  "##学": 30343,
  "bis": 20377,
  "ɒ": 1111,
  "conglomerate": 22453,
  "knocking": 10591,
  "##koto": 24886,
  "adolescent": 20274,
  "cantor": 26519,
  "amounted": 18779,
  "stripped": 10040,
  "austrians": 28439,
  "sidewalk": 11996,
  "newly": 4397,
  "intern": 25204,
  "squeezing": 15328,
  "##nb": 27698,
  "madam": 21658,
  "sitting": 3564,
  "happiness": 8404,
  "ottawa": 8166,
  "##₩": 30101,
  "1808": 13040,
  "narcotics": 27290,
  "hokkaido": 20826,
  "accept": 5138,
  "sinister": 16491,
  "[unused796]": 801,
  "freezing": 12809,
  "mans": 16042,
  "##]": 29636,
  "##tically": 25084,
  "##itte": 27100,
  "contracts": 8311,
  "doubts": 13579,
  "invited": 4778,
  "organisations": 8593,
  "commercials": 12698,
  "devices": 5733,
  "·": 1087,
  "hon": 10189,
  "functioning": 12285,
  "scanned": 11728,
  "[unused381]": 386,
  "divers": 18612,
  "##iferous": 23930,
  "##ely": 26006,
  "##deh": 25383,
  "##zin": 17168,
  "madden": 24890,
  "approximation": 20167,
  "alligator": 28833,
  "hosts": 6184,
  "authentic": 14469,
  "treatise": 15326,
  "crouch": 21676,
  "edo": 18314,
  "##kyu": 23076,
  "feelings": 5346,
  "[unused328]": 333,
  "##ani": 7088,
  "[unused481]": 486,
  "[unused235]": 240,
  "[unused696]": 701,
  "##aint": 22325,
  "ideals": 15084,
  "mum": 12954,
  "wrexham": 27119,
  "catholics": 10774,
  "marie": 5032,
  "curiously": 16484,
  "##cion": 10446,
  "manpower": 22039,
  "##arium": 17285,
  "tyrant": 26508,
  "terrorists": 15554,
  "##њ": 29763,
  "hubert": 15346,
  "##س": 29824,
  "##zd": 26494,
  "blossom": 20593,
  "sultan": 7544,
  "dq": 25410,
  "resurgence": 26303,
  "##shaft": 25679,
  "tracy": 10555,
  "vulcan": 25993,
  "##able": 3085,
  "##systems": 29390,
  "immediately": 3202,
  "1836": 10081,
  "pan": 6090,
  "durban": 25040,
  "knocked": 6573,
  "jailed": 21278,
  "penned": 17430,
  "owner": 3954,
  "exclusive": 7262,
  "zack": 13658,
  "##icide": 21752,
  "benches": 19571,
  "##mot": 18938,
  "sage": 10878,
  ")": 1007,
  "endowed": 19038,
  "zach": 12397,
  "hardest": 18263,
  "thayer": 25563,
  "waiting": 3403,
  "tread": 29449,
  "nobility": 11760,
  "guarded": 13802,
  "slipping": 11426,
  "dixon": 11357,
  "courthouse": 10816,
  "romani": 23982,
  "edges": 7926,
  "konrad": 22958,
  "tense": 9049,
  "ob": 27885,
  "modernism": 27254,
  "harlow": 22545,
  "##ene": 8625,
  "sticking": 13423,
  "[unused548]": 553,
  "copyright": 9385,
  "##tron": 15312,
  "ง": 1410,
  "##screen": 18182,
  "reflective": 21346,
  "jul": 21650,
  "chuck": 8057,
  "bleeding": 9524,
  "winnie": 27125,
  "residence": 5039,
  "flexible": 12379,
  "renewable": 13918,
  "researcher": 10753,
  "lad": 14804,
  "nude": 15287,
  "heated": 9685,
  "janice": 20029,
  "invading": 17657,
  "reactors": 22223,
  "talks": 7566,
  "drink": 4392,
  "[unused407]": 412,
  "128": 11899,
  "lenin": 17497,
  "productions": 5453,
  "eating": 5983,
  "borneo": 15688,
  "義": 1936,
  "chattanooga": 23351,
  "##ware": 8059,
  "giro": 19226,
  "dice": 18740,
  "compressor": 29329,
  "##rou": 22494,
  "bio": 16012,
  "##arding": 29154,
  "petitions": 24320,
  "miraculous": 26106,
  "##alla": 25425,
  "##pathy": 20166,
  "nec": 26785,
  "prem": 26563,
  "wimbledon": 13411,
  "##dote": 23681,
  "##tree": 13334,
  "banded": 25264,
  "lesbian": 11690,
  "proteins": 8171,
  "landings": 16805,
  "##imate": 21499,
  "aquatic": 13582,
  "club": 2252,
  "inverness": 22937,
  "regimental": 17604,
  "##hil": 19466,
  "billing": 25640,
  "grange": 18203,
  "christians": 8135,
  "opined": 26084,
  "depicted": 8212,
  "narrator": 11185,
  "に": 1668,
  "https": 16770,
  "秋": 1929,
  "##lley": 25105,
  "42": 4413,
  "exaggerated": 16903,
  "resume": 13746,
  "stryker": 25429,
  "reasoning": 13384,
  "##jean": 27687,
  "binds": 20817,
  "locke": 18343,
  "417": 27519,
  "prussian": 10734,
  "cell": 3526,
  "yeast": 21957,
  "dayton": 14700,
  "[unused704]": 709,
  "monarchs": 19799,
  "##lwyn": 29287,
  "fortune": 7280,
  "snacks": 27962,
  "skyla": 21738,
  "economical": 21791,
  "derbyshire": 15207,
  "[unused350]": 355,
  "carol": 8594,
  "critic": 6232,
  "##nda": 8943,
  "coarse": 20392,
  "##gen": 6914,
  "pratt": 13208,
  "phantom": 11588,
  "##bas": 22083,
  "via": 3081,
  "ached": 15043,
  "_": 1035,
  "sings": 10955,
  "straw": 13137,
  "##vate": 16952,
  "nipple": 14298,
  "gambia": 26728,
  "routes": 5847,
  "bafta": 22284,
  "monitor": 8080,
  "clues": 15774,
  "lifts": 13695,
  "disclosure": 19380,
  "curls": 14484,
  "finalists": 13527,
  "certainty": 15855,
  "deportation": 23702,
  "##dal": 9305,
  "recognise": 17614,
  "scoop": 23348,
  "##bo": 5092,
  "hot": 2980,
  "inside": 2503,
  "interfaces": 19706,
  "object": 4874,
  "##urne": 21737,
  "histoire": 20088,
  "palmer": 8809,
  "shield": 6099,
  "##nde": 13629,
  "journey": 4990,
  "##ℓ": 30105,
  "##ching": 8450,
  "hasan": 17000,
  "holocaust": 11513,
  "##sler": 20590,
  "juliana": 24157,
  "380": 17014,
  "protection": 3860,
  "murmurs": 22888,
  "judiciary": 14814,
  "deeds": 15616,
  "espionage": 21003,
  "florida": 3516,
  "contributions": 5857,
  "[unused681]": 686,
  "ambiguous": 20080,
  "mechanized": 23387,
  "magical": 8687,
  "require": 5478,
  "own": 2219,
  "effect": 3466,
  "##aldi": 24657,
  "se": 7367,
  "##rus": 7946,
  "inhabitants": 4864,
  "quiet": 4251,
  "##ィ": 30220,
  "氵": 1894,
  "britannia": 24677,
  "counselor": 17220,
  "barony": 19365,
  "tyler": 7482,
  "##wa": 4213,
  "##sion": 10992,
  "ceremony": 5103,
  "rca": 12639,
  "texans": 23246,
  "##華": 30468,
  "ellis": 8547,
  "##治": 30426,
  "propeller": 15692,
  "retreated": 11672,
  "hee": 18235,
  "172": 18253,
  "branding": 16140,
  "##gis": 17701,
  "occupying": 13992,
  "##dre": 16200,
  "retaliation": 18695,
  "slower": 12430,
  "##ided": 14097,
  "##berger": 14859,
  "##pheus": 22809,
  "##aldo": 27318,
  "清": 1903,
  "##unas": 23904,
  "##fect": 25969,
  "aunt": 5916,
  "unbearable": 24257,
  "bart": 12075,
  "touchdowns": 10183,
  "aegean": 27198,
  "dresden": 12983,
  "『": 1643,
  "feudal": 16708,
  "goddamn": 16477,
  "##ood": 17139,
  "tex": 16060,
  "phillip": 10852,
  "recognize": 6807,
  "friedman": 18486,
  "##ngen": 25997,
  "gymnasium": 11288,
  "##eza": 28640,
  "eyre": 26975,
  "1954": 4051,
  "puppet": 13997,
  "viking": 12886,
  "logs": 15664,
  "chemical": 5072,
  "israel": 3956,
  "viaduct": 20596,
  "mat": 13523,
  "orchard": 15623,
  "laura": 6874,
  "##lock": 7878,
  "aid": 4681,
  "conway": 14783,
  "##crest": 25313,
  "##pina": 26787,
  "gesturing": 22317,
  "uss": 7234,
  "lies": 3658,
  "logic": 7961,
  "##nzo": 25650,
  "##thor": 27844,
  "saturday": 5095,
  "jaguars": 24017,
  "dietary": 23444,
  "slash": 18296,
  "beak": 23525,
  "sophie": 8234,
  "slater": 17916,
  "grim": 11844,
  "superiority": 19113,
  "[unused732]": 737,
  "##ว": 29955,
  "thrusts": 25842,
  "write": 4339,
  "##word": 18351,
  "kia": 27005,
  "blades": 10491,
  "iain": 24486,
  "kiev": 12100,
  "sacrifices": 18502,
  "##basket": 25351,
  "[unused57]": 58,
  "##ares": 17933,
  "thread": 11689,
  "extensive": 4866,
  "gain": 5114,
  "digits": 16648,
  "buzzed": 21377,
  "subdivided": 15369,
  "contractual": 27948,
  "manages": 9020,
  "witnessed": 9741,
  "spacious": 22445,
  "ে": 1381,
  "##erved": 25944,
  "finished": 2736,
  "fiercely": 16265,
  "poles": 10567,
  "ts": 24529,
  "##laus": 28128,
  "clothes": 4253,
  "beer": 5404,
  "is": 2003,
  "alabama": 6041,
  "repression": 22422,
  "contrasted": 22085,
  "##loid": 27710,
  "incorporation": 16935,
  "state": 2110,
  "begged": 12999,
  "[unused856]": 861,
  "##k": 2243,
  "chest": 3108,
  "holiday": 6209,
  "33rd": 20883,
  "infants": 16725,
  "##6th": 25994,
  "hearted": 18627,
  "discomfort": 17964,
  "##asian": 24145,
  "maple": 11035,
  "ᵉ": 1499,
  "coin": 9226,
  "mater": 16289,
  "northeast": 4794,
  "##ople": 27469,
  "antennae": 28624,
  "occurs": 5158,
  "dynasty": 5321,
  "comprehension": 26683,
  "fright": 25966,
  "##hs": 7898,
  "operates": 5748,
  "cones": 23825,
  "stockport": 26284,
  "redemption": 18434,
  "round": 2461,
  "snowfall": 26043,
  "##coll": 26895,
  "fda": 17473,
  "[unused710]": 715,
  "[unused136]": 141,
  "manner": 5450,
  "runes": 29161,
  "float": 14257,
  "releases": 7085,
  "##ense": 16700,
  "smithsonian": 15720,
  "gaius": 19564,
  "leads": 5260,
  "had": 2018,
  "[unused85]": 86,
  "##र": 29869,
  "պ": 1233,
  "134": 15170,
  "sh": 14021,
  "j": 1046,
  "recital": 25521,
  "pop": 3769,
  "substance": 9415,
  "##ր": 29784,
  "##hara": 11077,
  "gareth": 20243,
  "##こ": 30181,
  "##tagram": 23091,
  "integral": 9897,
  "irregular": 12052,
  "fury": 8111,
  "containing": 4820,
  "##ogist": 22522,
  "ghost": 5745,
  "serial": 7642,
  "moths": 14885,
  "methodology": 16134,
  "##uous": 8918,
  "shrug": 13409,
  "comrade": 27661,
  "##dos": 12269,
  "##ess": 7971,
  "##uttered": 23128,
  "shamrock": 28782,
  "##广": 30368,
  "colored": 6910,
  "designations": 26672,
  "moral": 7191,
  "synagogue": 13067,
  "backdrop": 18876,
  "dillon": 14602,
  "dazzling": 28190,
  "prescription": 20422,
  "pathways": 16910,
  "portsmouth": 10913,
  "75": 4293,
  "cotton": 6557,
  "##ure": 5397,
  "fades": 26784,
  "[unused866]": 871,
  "1872": 7572,
  "virginity": 26970,
  "josef": 12947,
  "programme": 4746,
  "masked": 16520,
  "be": 2022,
  "##地": 30328,
  "##tracted": 24301,
  "carrie": 13223,
  "lan": 17595,
  "##на": 19865,
  "costa": 6849,
  "woodward": 19133,
  "##eb": 15878,
  "avila": 29079,
  "los": 3050,
  "geographic": 9183,
  "##宿": 30352,
  "consonant": 18265,
  "plotted": 27347,
  "##se": 3366,
  "shooting": 5008,
  "copies": 4809,
  "squinted": 17425,
  "[unused668]": 673,
  "1780": 15051,
  "beheaded": 28923,
  "##®": 29656,
  "insults": 23862,
  "soho": 23771,
  "[unused54]": 55,
  "dirt": 6900,
  "tapping": 15135,
  "##hers": 22328,
  "making": 2437,
  "1791": 14362,
  "rounded": 8352,
  "cute": 10140,
  "##carbon": 26190,
  "contain": 5383,
  "brushes": 22569,
  "thoroughbred": 18359,
  "forwards": 19390,
  "ち": 1662,
  "324": 27234,
  "##ں": 29843,
  "sizable": 25908,
  "supplier": 17024,
  "format": 4289,
  "subset": 16745,
  "comparable": 12435,
  "confederacy": 18179,
  "ow": 27593,
  "bremen": 16314,
  "##86": 20842,
  "giorgio": 17697,
  "##voking": 22776,
  "everywhere": 7249,
  "intentions": 11174,
  "huddled": 20258,
  "supermarket": 17006,
  "820": 26667,
  "wonder": 4687,
  "thin": 4857,
  "##を": 30216,
  "##gist": 24063,
  "expanding": 9186,
  "zinc": 15813,
  "suns": 19352,
  "incident": 5043,
  "accountability": 17842,
  "recovering": 13400,
  "ben": 3841,
  "this": 2023,
  "way": 2126,
  "tack": 26997,
  "##pipe": 24548,
  "libre": 21091,
  "##ey": 3240,
  "maureen": 19167,
  "advocating": 20324,
  "condor": 29260,
  "skier": 21294,
  "soaking": 22721,
  "russell": 5735,
  "supports": 6753,
  "wexford": 23121,
  "restructuring": 18322,
  "##ingly": 15787,
  "##ก": 29945,
  "influx": 18050,
  "gladly": 24986,
  "##wy": 18418,
  "benefit": 5770,
  "enraged": 18835,
  "##urai": 24804,
  "mongols": 22235,
  "homestead": 14473,
  "##rry": 12244,
  "##valent": 24879,
  "vocalist": 8032,
  "parties": 4243,
  "##ppel": 27877,
  "merritt": 26701,
  "practicing": 12560,
  "darryl": 22821,
  "##yad": 25152,
  "chicks": 20649,
  "vanderbilt": 17066,
  "##cial": 13247,
  "fairchild": 24258,
  "indication": 12407,
  "##uw": 25974,
  "[unused559]": 564,
  "vernon": 11447,
  "names": 3415,
  "measures": 5761,
  "schuster": 24253,
  "masovian": 23703,
  "officers": 3738,
  "48": 4466,
  "published": 2405,
  "newspaper": 3780,
  "trust": 3404,
  "pitcher": 8070,
  "platt": 28005,
  "culminated": 16943,
  "##rao": 25667,
  "##unciation": 24101,
  "explicit": 13216,
  "##ぬ": 30195,
  "tossing": 15021,
  "palazzo": 18482,
  "kaplan": 22990,
  "melvin": 20993,
  "canary": 17154,
  "##alo": 23067,
  "##phile": 24862,
  "##ncy": 9407,
  "tempered": 22148,
  "disaster": 7071,
  "##enia": 19825,
  "medication": 14667,
  "##ana": 5162,
  "1917": 4585,
  "linnaeus": 21610,
  "identified": 4453,
  "calvin": 11130,
  "##taff": 22542,
  "gilbert": 7664,
  "[unused442]": 447,
  "receptionist": 23775,
  "retrieval": 26384,
  "##din": 8718,
  "cambridge": 4729,
  "westphalia": 22952,
  "glover": 20012,
  "elevation": 6678,
  "scientific": 4045,
  "ipa": 24531,
  "mess": 6752,
  "proxy": 24540,
  "##grade": 24170,
  "lays": 19764,
  "[unused116]": 121,
  "arranging": 19018,
  "economies": 18730,
  "benedictine": 21139,
  "##zee": 23940,
  "capital": 3007,
  "invite": 13260,
  "insights": 20062,
  "##ste": 13473,
  "rbis": 23583,
  "উ": 1350,
  "straining": 21366,
  "や": 1682,
  "vulgar": 29364,
  "sock": 28407,
  "escorted": 13127,
  "##pin": 8091,
  "1920": 4444,
  "strictly": 9975,
  "soy": 25176,
  "francisco": 3799,
  "pasture": 20787,
  "cast": 3459,
  "functionality": 15380,
  "transmissions": 21670,
  "edison": 17046,
  "alarm": 8598,
  "##ph": 8458,
  "coincidentally": 27542,
  "bizarre": 13576,
  "[unused308]": 313,
  "unclear": 10599,
  "dar": 18243,
  "moods": 27824,
  "approach": 3921,
  "luck": 6735,
  "gradual": 16612,
  "venus": 11691,
  "##ध": 29862,
  "stimulus": 19220,
  "johns": 11545,
  "complexity": 11619,
  "氏": 1891,
  "stand": 3233,
  "evident": 10358,
  "very": 2200,
  "293": 26953,
  "239": 23688,
  "majors": 15279,
  "magic": 3894,
  "jewels": 15565,
  "##isk": 20573,
  "jurisprudence": 24697,
  "##etic": 16530,
  "dfb": 28894,
  "self": 2969,
  "second": 2117,
  "##oche": 23555,
  "##ades": 18673,
  "##ptive": 24971,
  "existing": 4493,
  "styled": 13650,
  "missionary": 8696,
  "believes": 7164,
  "inclined": 13050,
  "gypsy": 16006,
  "nonetheless": 9690,
  "730": 28004,
  "##ield": 12891,
  "##anum": 27975,
  "##urn": 14287,
  "additional": 3176,
  "undermine": 25174,
  "sidney": 11430,
  "priests": 8656,
  "keen": 10326,
  "disconnected": 23657,
  "،": 1268,
  "pt": 13866,
  "biblical": 10213,
  "noted": 3264,
  "helicopters": 12400,
  "[unused620]": 625,
  "waterway": 23668,
  "##yuki": 19663,
  "maddie": 17805,
  "##hips": 19801,
  "description": 6412,
  "1968": 3380,
  "patel": 20455,
  "woodland": 11051,
  "##cliff": 27580,
  "stare": 6237,
  "ვ": 1443,
  "madeline": 16974,
  "hooded": 21592,
  "##llie": 23697,
  "regulators": 25644,
  "pilasters": 26752,
  "matches": 3503,
  "##diment": 21341,
  "on": 2006,
  "[unused832]": 837,
  "augmented": 19335,
  "harvested": 22629,
  "disk": 9785,
  "obstacle": 18355,
  "##air": 11215,
  "##cina": 28748,
  "withdrew": 6780,
  "football": 2374,
  "kinship": 27866,
  "shropshire": 19322,
  "duane": 27319,
  "laughter": 7239,
  "suzy": 28722,
  "##rney": 27114,
  "swaying": 21826,
  "ballads": 18456,
  "tiles": 13262,
  "dispersal": 27602,
  "vocalists": 27478,
  "sadie": 21330,
  "attached": 4987,
  "gottfried": 26142,
  "rescues": 26001,
  "eh": 15501,
  "biologist": 21477,
  "welsh": 6124,
  "tendency": 11765,
  "adventurer": 29506,
  "walks": 7365,
  "distinguishes": 27343,
  "辶": 1956,
  "talbot": 14838,
  "##khand": 25910,
  "1900": 5141,
  "wryly": 28325,
  "##स": 29874,
  "##genic": 16505,
  "scented": 25738,
  "##ry": 2854,
  "mentioning": 18625,
  "kenneth": 8856,
  "language": 2653,
  "294": 28135,
  "colorful": 14231,
  "laurie": 16450,
  "interception": 17385,
  "barnard": 22266,
  "hovering": 16349,
  "dancer": 8033,
  "dalton": 12413,
  "branded": 11180,
  "412": 25873,
  "inaccurate": 24949,
  "##uze": 20395,
  "translation": 5449,
  "pouch": 21445,
  "⟨": 1629,
  "##ہ": 29845,
  "[unused879]": 884,
  "##lly": 9215,
  "protocols": 16744,
  "##tner": 18885,
  "organising": 21317,
  "##van": 6212,
  "canterbury": 9976,
  "cpc": 28569,
  "φ": 1176,
  "##rona": 26788,
  "bai": 21790,
  "pedestrian": 14662,
  "ruler": 7786,
  "upstairs": 8721,
  "submerged": 13563,
  "reviewing": 15252,
  "subcontinent": 26125,
  "homer": 11525,
  "hyde": 11804,
  "elisabeth": 12877,
  "1901": 5775,
  "##aud": 19513,
  "freed": 10650,
  "##sts": 12837,
  "appeared": 2596,
  "steve": 3889,
  "##ania": 13241,
  "muller": 12304,
  "particles": 9309,
  "graduate": 4619,
  "jets": 9924,
  "##〉": 30164,
  "parked": 9083,
  "##achal": 24409,
  "mythological": 21637,
  "drawings": 9254,
  "pets": 18551,
  "assumes": 15980,
  "rental": 12635,
  "basel": 14040,
  "chunk": 20000,
  "introduces": 13999,
  "careful": 6176,
  "upton": 26900,
  "wool": 12121,
  "mane": 23055,
  "identification": 8720,
  "##tub": 28251,
  "sarcastically": 23800,
  "cad": 28353,
  "trondheim": 26331,
  "cum": 13988,
  "cheap": 10036,
  "rendition": 19187,
  "coronation": 12773,
  "berlin": 4068,
  "800": 5385,
  "receptions": 16466,
  "ranging": 7478,
  "stretch": 7683,
  "undefeated": 15188,
  "confirming": 19195,
  "humble": 15716,
  "pac": 14397,
  "##uration": 18924,
  "practitioner": 18742,
  "[unused7]": 8,
  "sonny": 13584,
  "##fus": 25608,
  "resigned": 5295,
  "efficiency": 8122,
  "appointing": 28050,
  "searches": 17193,
  "gameplay": 11247,
  "ultimatum": 29227,
  "1962": 3705,
  "modeled": 14440,
  "modular": 19160,
  "caliphate": 28034,
  "ラ": 1731,
  "##tling": 15073,
  "##ons": 5644,
  "pops": 16949,
  "[unused21]": 22,
  "eruption": 17259,
  "paint": 6773,
  "##რ": 29987,
  "christy": 21550,
  "performed": 2864,
  "##qu": 28940,
  "180": 8380,
  "guillermo": 21070,
  "dawn": 6440,
  "pools": 12679,
  "'": 1005,
  "1100": 22096,
  "viral": 13434,
  "monte": 10125,
  "##ri": 3089,
  "##ga": 3654,
  "##mide": 24284,
  "##icz": 18682,
  "shifts": 12363,
  "endeavors": 28809,
  "malley": 25271,
  "sensory": 16792,
  "scandals": 29609,
  "nowhere": 7880,
  "mortal": 9801,
  "amplifiers": 28633,
  "iqbal": 28111,
  "silenced": 25030,
  "cart": 11122,
  "telangana": 23764,
  "[unused532]": 537,
  "diet": 8738,
  "cyclists": 21912,
  "elle": 15317,
  "chandra": 16469,
  "boats": 6242,
  "fatal": 10611,
  "4th": 4343,
  "[unused508]": 513,
  "##35": 19481,
  "odds": 10238,
  "congresses": 24460,
  "##م": 22192,
  "tie": 5495,
  "pissed": 9421,
  "missy": 25019,
  "mali": 16007,
  "1972": 3285,
  "[unused211]": 216,
  "domestic": 4968,
  "locals": 10575,
  "faction": 10233,
  "urging": 14328,
  "chick": 14556,
  "##cia": 7405,
  "stephenson": 19789,
  "[unused356]": 361,
  "insanity": 19272,
  "nancy": 7912,
  "tall": 4206,
  "diary": 9708,
  "stimulating": 27295,
  "sentiments": 23541,
  "herds": 28822,
  "##ca": 3540,
  "governing": 8677,
  "des": 4078,
  "side": 2217,
  "〈": 1637,
  "perimeter": 13443,
  "##sen": 5054,
  "##polis": 17699,
  "bathrooms": 28942,
  "plays": 3248,
  "conquer": 16152,
  "revolves": 19223,
  "marketed": 11625,
  "ash": 6683,
  "mentions": 9704,
  "##iq": 18515,
  "1743": 25615,
  "freestyle": 9817,
  "adjutant": 20690,
  "craved": 25155,
  "localized": 22574,
  "commonly": 4141,
  "citrus": 20418,
  "##house": 4580,
  "fearful": 19725,
  "turnover": 20991,
  "romans": 10900,
  "awareness": 7073,
  "protect": 4047,
  "monarch": 11590,
  "clothed": 24963,
  "##fs": 10343,
  "leapt": 13920,
  "hindu": 7560,
  "1897": 6347,
  "swami": 20087,
  "outsider": 21002,
  "pune": 16920,
  "saber": 25653,
  "morality": 16561,
  "##zation": 9276,
  "cyprus": 9719,
  "greasy": 26484,
  "2017": 2418,
  "km": 2463,
  "roads": 4925,
  "rodney": 13898,
  "1892": 6527,
  "bright": 4408,
  "formulated": 19788,
  "¹⁄₂": 18728,
  "##rol": 13153,
  "##inates": 28184,
  "suffer": 9015,
  "preach": 25250,
  "charlotte": 5904,
  "repairs": 10315,
  "trails": 9612,
  "infinitely": 25773,
  "goodman": 14514,
  "learning": 4083,
  "ears": 5551,
  "markus": 23030,
  "elf": 17163,
  "##uled": 18696,
  "kristen": 22435,
  "gorge": 14980,
  "##hat": 12707,
  "##vius": 26055,
  "##iring": 24771,
  "transfer": 4651,
  "lessons": 8220,
  "freddy": 19343,
  "п": 1194,
  "airborne": 10519,
  "assyrian": 19950,
  "##lina": 13786,
  "web": 4773,
  "##vira": 24093,
  "techniques": 5461,
  "ie": 29464,
  "ds": 16233,
  "##agger": 27609,
  "boogie": 21495,
  "द": 1325,
  "melodic": 17187,
  "retaining": 12823,
  "estranged": 24211,
  "kashmir": 13329,
  "valencia": 13083,
  "acting": 3772,
  "blamed": 11248,
  "##physical": 23302,
  "司": 1791,
  "telugu": 12180,
  "shaft": 9093,
  "emily": 6253,
  "heavy": 3082,
  "##bers": 17198,
  "speed": 3177,
  "pm": 7610,
  "swiped": 24452,
  "rae": 14786,
  "[unused718]": 723,
  "braid": 24148,
  "rein": 27788,
  "inserted": 12889,
  "##pus": 12207,
  "bronze": 4421,
  "ى": 1299,
  "drummond": 19266,
  "##57": 28311,
  "##dridge": 21482,
  "##に": 30194,
  "##isen": 28992,
  "##pies": 13046,
  "stranded": 15577,
  "morris": 6384,
  "joke": 8257,
  "fragments": 10341,
  "##spar": 27694,
  "##finger": 20349,
  "bayou": 24818,
  "poorer": 27196,
  "motionless": 19917,
  "fourth": 2959,
  "agents": 6074,
  "##otype": 26305,
  "constructive": 26157,
  "dance": 3153,
  "star": 2732,
  "##th": 2705,
  "##ия": 23483,
  "##oese": 23379,
  "hmm": 17012,
  "[unused507]": 512,
  "childbirth": 27162,
  "touchdown": 7921,
  "cage": 7980,
  "scan": 13594,
  "receipts": 28258,
  "utilization": 27891,
  "sides": 3903,
  "finn": 9303,
  "##zquez": 22938,
  "goalscorer": 28602,
  "intricate": 17796,
  "aching": 14750,
  "elevated": 8319,
  "started": 2318,
  "talked": 5720,
  "remind": 10825,
  "boss": 5795,
  "##¦": 29649,
  "principals": 27928,
  "##minating": 27932,
  "##貝": 30478,
  "donation": 13445,
  "preparatory": 13485,
  "moravian": 28131,
  "spite": 8741,
  "confessions": 21444,
  "[unused585]": 590,
  "month": 3204,
  "ports": 8831,
  "##ods": 20620,
  "marine": 3884,
  "jewish": 3644,
  "blend": 12586,
  "##bbing": 23200,
  "snarled": 15022,
  "reporters": 12060,
  "removing": 9268,
  "##dition": 20562,
  "lured": 26673,
  "##tangled": 27898,
  "detect": 11487,
  "immigrant": 11560,
  "gained": 4227,
  "འ": 1433,
  "ս": 1234,
  "susquehanna": 26361,
  "pauses": 19623,
  "topic": 8476,
  "capacities": 21157,
  "08": 5511,
  "surgeon": 9431,
  "longer": 2936,
  "в": 1182,
  "moreover": 9308,
  "prostate": 25086,
  "pulled": 2766,
  "consider": 5136,
  "consecutive": 5486,
  "##rked": 19849,
  "arabian": 13771,
  "vishnu": 17647,
  "uncomfortable": 8796,
  "membership": 5779,
  "##dah": 18417,
  "regular": 3180,
  "commenting": 15591,
  "dynamics": 10949,
  "horton": 18469,
  "belize": 18867,
  "sportsman": 27168,
  "nrhp": 22424,
  "bliss": 13670,
  "mosquito": 22529,
  "##ota": 17287,
  "crossing": 5153,
  "cbe": 15852,
  "shocks": 28215,
  "##社": 30450,
  "##born": 10280,
  "##hearted": 27693,
  "##ல": 29928,
  "reported": 2988,
  "##ச": 29919,
  "households": 3911,
  "aachen": 29093,
  "劉": 1777,
  "beech": 21760,
  "cadet": 12738,
  "incompatible": 25876,
  "mused": 22335,
  "##ographic": 13705,
  "yang": 8675,
  "occupies": 14133,
  "swimmer": 13361,
  "engraver": 27771,
  "[unused453]": 458,
  "hides": 17382,
  "whimper": 28544,
  "parsons": 13505,
  "##ław": 19704,
  "hiss": 19074,
  "##iciencies": 28227,
  "##書": 30397,
  "careers": 10922,
  "separation": 8745,
  "popular": 2759,
  "ᵣ": 1508,
  "rosy": 26851,
  "acceptance": 9920,
  "##ts": 3215,
  "##jevic": 26782,
  "interfered": 28976,
  "[unused518]": 523,
  "##trum": 24456,
  "cars": 3765,
  "chopin": 25479,
  "wooded": 17172,
  "tensor": 23435,
  "sync": 26351,
  "huddersfield": 19715,
  "interval": 13483,
  "crafts": 14030,
  "##rrick": 24999,
  "ordered": 3641,
  "##ulate": 9869,
  "lal": 21348,
  "armenian": 7508,
  "##shin": 17426,
  "claims": 4447,
  "frames": 11048,
  "##sibility": 28255,
  "denomination": 18683,
  "clearing": 8430,
  "projection": 13996,
  "ingredients": 12760,
  "intervening": 26623,
  "cultivated": 13237,
  "##dd": 14141,
  "remain": 3961,
  "launch": 4888,
  "ensembles": 21528,
  "studied": 3273,
  "descendants": 8481,
  "carvings": 22838,
  "domed": 29208,
  "##laid": 24393,
  "aristocratic": 19774,
  "increasing": 4852,
  "mcintosh": 29052,
  "dry": 4318,
  "thirsty": 24907,
  "medical": 2966,
  "target": 4539,
  "understands": 19821,
  "正": 1888,
  "goalkeeper": 9653,
  "melissa": 9606,
  "confederation": 11078,
  "cubic": 11919,
  "festival": 2782,
  "meritorious": 22053,
  "##neck": 18278,
  "chad": 9796,
  "##unce": 17457,
  "##ogy": 15707,
  "textures": 29343,
  "lying": 4688,
  "fist": 7345,
  "weary": 16040,
  "delgado": 26532,
  "inverted": 20037,
  "felicity": 27357,
  "engineering": 3330,
  "stubborn": 14205,
  "avalanche": 18846,
  "##ɑ": 29677,
  "consist": 8676,
  "algerian": 16953,
  "silence": 4223,
  "seater": 23392,
  "subdistrict": 24150,
  "[unused452]": 457,
  "ivo": 28346,
  "killers": 15978,
  "independents": 23756,
  "flea": 26735,
  "hai": 15030,
  "##面": 30502,
  "improvements": 8377,
  "widening": 17973,
  "legs": 3456,
  "transactions": 11817,
  "serialized": 27289,
  "350": 8698,
  "[unused364]": 369,
  "narrower": 22546,
  "belly": 7579,
  "amusing": 19142,
  "squealed": 26175,
  "endured": 16753,
  "struggled": 6915,
  "xvi": 16855,
  "sas": 21871,
  "##sier": 20236,
  "sense": 3168,
  "darling": 9548,
  "nils": 27282,
  "##hong": 19991,
  "ˢ": 1152,
  "##iver": 16402,
  "##心": 30375,
  "offense": 10048,
  "##js": 22578,
  "abandonment": 22290,
  "lina": 27022,
  "creaked": 28068,
  "##balls": 18510,
  "hotel": 3309,
  "breathing": 5505,
  "verdict": 14392,
  "benoit": 21721,
  "voivodeship": 7225,
  "##rgos": 22280,
  "⁺": 1544,
  "transylvania": 20816,
  "unlimited": 14668,
  "##ti": 3775,
  "fiona": 13073,
  "credited": 5827,
  "nik": 23205,
  "gel": 21500,
  "bonding": 19882,
  "flees": 24776,
  "[unused122]": 127,
  "archived": 9749,
  "albion": 13392,
  "permitted": 7936,
  "##iza": 21335,
  "##suke": 16867,
  "trousers": 15292,
  "[unused877]": 882,
  "emerges": 19391,
  "##75": 23352,
  "achieving": 10910,
  "rap": 9680,
  "harmonica": 16527,
  "wta": 21925,
  "ł": 1105,
  "isa": 18061,
  "reflecting": 10842,
  "mohan": 18529,
  "1940s": 7675,
  "長": 1967,
  "##bble": 11362,
  "journalist": 4988,
  "dependency": 24394,
  "dollars": 6363,
  "cheers": 21250,
  "ј": 1214,
  "1833": 11040,
  "chung": 15972,
  "gigantic": 20193,
  "##ホ": 30248,
  "chloe": 9318,
  "precedent": 20056,
  "vu": 24728,
  "tore": 9538,
  "howl": 22912,
  "disco": 12532,
  "wolverine": 22162,
  "denied": 6380,
  "tun": 27112,
  "##ope": 17635,
  "##zu": 9759,
  "tristan": 9822,
  "expected": 3517,
  "leopard": 16240,
  "roc": 21326,
  "shrinking": 28375,
  "u": 1057,
  "smug": 20673,
  "henley": 20768,
  "mysterious": 8075,
  "pigs": 14695,
  "gatherings": 21403,
  "wakes": 17507,
  "##ivate": 21466,
  "tag": 6415,
  "##oire": 26250,
  "entrepreneurship": 20213,
  "snooker": 26448,
  "##uate": 20598,
  "russians": 12513,
  "battalion": 4123,
  "##lene": 11474,
  "utilize": 16462,
  "##sol": 19454,
  "lower": 2896,
  "##xa": 18684,
  "quarter": 4284,
  "goal": 3125,
  "1734": 27367,
  "deportivo": 23696,
  "lance": 9993,
  "##bt": 19279,
  "##dez": 24601,
  "immersion": 27013,
  "kings": 5465,
  "neill": 11511,
  "deer": 8448,
  "toro": 23790,
  "##ees": 10285,
  "slashed": 23587,
  "played": 2209,
  "binding": 8031,
  "wen": 19181,
  "[unused219]": 224,
  "##tera": 14621,
  "uncertain": 9662,
  "flipped": 9357,
  "logos": 25571,
  "ᅯ": 1479,
  "together": 2362,
  "sessions": 6521,
  "doris": 15467,
  "[unused775]": 780,
  "##uto": 16161,
  "##ovo": 16059,
  "restrain": 28467,
  "unicef": 29073,
  "beautifully": 17950,
  "informal": 11900,
  "unprecedented": 15741,
  "ignores": 26663,
  "biographical": 16747,
  "unleashed": 22416,
  "parishes": 11600,
  "alumnus": 19678,
  "southeast": 4643,
  "##es": 2229,
  "dollar": 7922,
  "##tadt": 18808,
  "feel": 2514,
  "sheltered": 18304,
  "academies": 20994,
  "spotted": 7282,
  "zeta": 23870,
  "tesla": 26060,
  "##see": 19763,
  "webber": 19861,
  "broadcast": 3743,
  "almighty": 26668,
  "dolores": 21544,
  "presses": 14616,
  "microsoft": 7513,
  "hanged": 17818,
  "overall": 3452,
  "insect": 14211,
  "##his": 24158,
  "interface": 8278,
  "goals": 3289,
  "reluctance": 21662,
  "donnelly": 28317,
  "receive": 4374,
  "johannes": 12470,
  "pumping": 14107,
  "foley": 17106,
  "narrowed": 8061,
  "admired": 12749,
  "adverse": 15316,
  "1776": 13963,
  "##ato": 10610,
  "cares": 14977,
  "##turing": 16037,
  "##ifiers": 28295,
  "han": 7658,
  "##lone": 27165,
  "signage": 29404,
  "run": 2448,
  "cadets": 15724,
  "russ": 18072,
  "distracted": 11116,
  "freyja": 7075,
  "vamps": 24064,
  "家": 1825,
  "shipments": 24636,
  "agra": 29542,
  "retorted": 24056,
  "turtle": 13170,
  "##lena": 20844,
  "cocked": 13179,
  "stopped": 3030,
  "breuning": 18177,
  "begs": 27591,
  "maternity": 23676,
  "50": 2753,
  "kathleen": 14559,
  "س": 1282,
  "clapping": 27104,
  "suites": 19796,
  "vera": 12297,
  "accountant": 17907,
  "nam": 15125,
  "œ": 1107,
  "sick": 5305,
  "receivers": 19278,
  "243": 22884,
  "know": 2113,
  "laboratories": 12030,
  "##ttal": 28200,
  "男": 1912,
  "surveillance": 9867,
  "[unused972]": 977,
  "keller": 16155,
  "emirates": 14041,
  "adjusting": 19158,
  "magnate": 27470,
  "fails": 11896,
  "##jali": 28948,
  "hamas": 22129,
  "specifications": 15480,
  "rot": 18672,
  "ア": 1693,
  "##write": 26373,
  "steep": 9561,
  "tents": 17732,
  "con": 9530,
  "##竹": 30459,
  "##ı": 11722,
  "bastion": 26829,
  "considerably": 9839,
  "pioneered": 16193,
  "designs": 5617,
  "jung": 11810,
  "hostage": 13446,
  "darkening": 27862,
  "yerevan": 23383,
  "contender": 20127,
  "##ত": 29898,
  "answer": 3437,
  "##ario": 16843,
  "swap": 19948,
  "armed": 4273,
  "hyper": 23760,
  "spherical": 18970,
  "norway": 5120,
  "[unused833]": 838,
  "य": 1332,
  "forming": 5716,
  "##ncia": 22750,
  "surrounds": 20626,
  "##dium": 12811,
  "distrust": 29245,
  "cooling": 11520,
  "wheelchair": 13204,
  "##trick": 22881,
  "[unused774]": 779,
  "wheeled": 17320,
  "greenwood": 16827,
  "limitations": 12546,
  "##bina": 21114,
  "investments": 10518,
  "##tro": 13181,
  "stimulation": 20858,
  "algae": 18670,
  "lo": 8840,
  "gymnastics": 14002,
  "victory": 3377,
  "ram": 8223,
  "turquoise": 28653,
  "concurrent": 16483,
  "triangles": 27189,
  "hearings": 19153,
  "kunst": 28145,
  "##ptic": 20746,
  "umar": 27981,
  "kidd": 25358,
  "jody": 27562,
  "barrels": 13826,
  "richly": 26502,
  "colder": 21399,
  "accomplishment": 24718,
  "janeiro": 11497,
  "polo": 11037,
  "trailers": 21389,
  "##offs": 27475,
  "set": 2275,
  "display": 4653,
  "##sus": 13203,
  "313": 22997,
  "equation": 8522,
  "miguel": 8374,
  "bullets": 10432,
  "elector": 20374,
  "putnam": 20230,
  "##isation": 6648,
  "corona": 21887,
  "jain": 17136,
  "ץ": 1262,
  "##ס": 29804,
  "march": 2233,
  "owning": 19273,
  "maryland": 5374,
  "##raus": 25965,
  "supported": 3569,
  "##drick": 24092,
  "games": 2399,
  "beers": 18007,
  "##མ": 29968,
  "coach": 2873,
  "principality": 18018,
  "wiping": 14612,
  "discs": 15303,
  "1756": 22370,
  "##una": 9521,
  "kobayashi": 28930,
  "dots": 14981,
  "pena": 19409,
  "##₇": 30083,
  "britain": 3725,
  "##ichi": 11319,
  "eucalyptus": 27111,
  "##tees": 28313,
  "graders": 23256,
  "robbins": 18091,
  "miserable": 13736,
  "ware": 16283,
  "rebounds": 11049,
  "hills": 4564,
  "fremantle": 20358,
  "##etano": 28752,
  "118": 12963,
  "##ep": 13699,
  "brace": 17180,
  "##ბ": 29975,
  "kept": 2921,
  "warship": 21905,
  "##5": 2629,
  "regret": 9038,
  "budget": 5166,
  "##riders": 28116,
  "23rd": 13928,
  "##iving": 14966,
  "##sm": 6491,
  "algebraic": 17390,
  "##lving": 25780,
  "disappointed": 9364,
  "croix": 18733,
  "enormous": 8216,
  "lamar": 19756,
  "##ials": 26340,
  "lunged": 17755,
  "##bed": 8270,
  "boasted": 23390,
  "cowboys": 11666,
  "consulted": 17535,
  "commemorated": 19131,
  "reins": 19222,
  "ث": 1274,
  "ashton": 13772,
  "dignitaries": 27960,
  "288": 24841,
  "›": 1533,
  "bottom": 3953,
  "caring": 11922,
  "narrowly": 11866,
  "newport": 9464,
  "ि": 1341,
  "creativity": 14842,
  "##lo": 4135,
  "immigration": 7521,
  "stored": 8250,
  "##lyn": 9644,
  "dissipated": 22572,
  "##bley": 29538,
  "formally": 6246,
  "confesses": 22826,
  "##糹": 30460,
  "##@": 29633,
  "paraguay": 13884,
  "1838": 9931,
  "yielded": 17544,
  "貝": 1952,
  "##can": 9336,
  "dh": 28144,
  "instances": 12107,
  "##ley": 3051,
  "კ": 1446,
  "generators": 16937,
  "fielder": 25000,
  "glow": 8652,
  "irregularities": 28868,
  "schwarz": 29058,
  "alberto": 12007,
  "textile": 12437,
  "common": 2691,
  "[unused746]": 751,
  "fused": 19660,
  "स": 1338,
  "satirical": 17251,
  "documented": 8832,
  "##rup": 21531,
  "[unused488]": 493,
  "synthesis": 10752,
  "chefs": 27828,
  "maurice": 7994,
  "mandolin": 17687,
  "##cta": 25572,
  "##♠": 30150,
  "inquiries": 27050,
  "metres": 3620,
  "##on": 2239,
  "navigator": 20532,
  "unused": 15171,
  "celebrity": 8958,
  "##ffin": 15379,
  "imam": 17189,
  "##kley": 22315,
  "fated": 27442,
  "cp": 18133,
  "##uga": 16377,
  "pc": 7473,
  "retention": 20125,
  "grunt": 20696,
  "collarbone": 29600,
  "musical": 3315,
  "も": 1681,
  "##sca": 15782,
  "porn": 22555,
  "holding": 3173,
  "##ロ": 30261,
  "##table": 10880,
  "fiction": 4349,
  "herb": 12810,
  "unarmed": 23206,
  "##rma": 17830,
  "र": 1333,
  "benign": 28378,
  "##ants": 11390,
  "muhammad": 7187,
  "banged": 22843,
  "toned": 27604,
  "striped": 17983,
  "##hett": 28499,
  "internacional": 27607,
  "compilation": 6268,
  "outdoor": 7254,
  "threaded": 26583,
  "[unused167]": 172,
  "ordnance": 14445,
  "橋": 1885,
  "nape": 23634,
  "დ": 1441,
  "gordon": 5146,
  "remembrance": 19451,
  "##osta": 28696,
  "unfamiliar": 16261,
  "##kti": 22462,
  "certification": 10618,
  "missile": 7421,
  "risky": 19188,
  "booths": 27612,
  "“": 1523,
  "decline": 6689,
  "municipalities": 7602,
  "analytics": 25095,
  "hummed": 26747,
  "glamour": 22439,
  "##yuan": 17236,
  "##lund": 18028,
  "porter": 8716,
  "obsessed": 15896,
  "movie": 3185,
  "##26": 23833,
  "lithium": 22157,
  "somme": 25158,
  "audrey": 14166,
  "sabotage": 20223,
  "oasis": 18128,
  "pound": 9044,
  "finding": 4531,
  "scandal": 9446,
  "tipping": 25486,
  "santo": 11685,
  "madonna": 11284,
  "darwin": 11534,
  "cobalt": 25627,
  "locus": 25206,
  "field": 2492,
  "directorate": 13634,
  "turn": 2735,
  "ნ": 1449,
  "rockwell": 25235,
  "gale": 14554,
  "##เ": 29959,
  "1975": 3339,
  "nestor": 25397,
  "bratislava": 22992,
  "bypassed": 27539,
  "prestige": 14653,
  "扌": 1859,
  "spoiled": 19582,
  "temple": 3379,
  "naga": 26539,
  "##rcus": 29006,
  "consultants": 22283,
  "1662": 25909,
  "stat": 28093,
  "##¨": 29651,
  "viewer": 13972,
  "viscount": 12182,
  "##uming": 24270,
  "methods": 4725,
  "torino": 24737,
  "exclusively": 7580,
  "seniors": 15995,
  "mexico": 3290,
  "fry": 14744,
  "##語": 30476,
  "fond": 13545,
  "eager": 9461,
  "##sons": 23345,
  "ா": 1395,
  "survival": 7691,
  "surprisingly": 10889,
  "administered": 8564,
  "mortally": 26495,
  "beforehand": 25828,
  "##bial": 21102,
  "flanked": 15874,
  "foods": 9440,
  "sponsorship": 12026,
  "decomposition": 22511,
  "##dron": 19440,
  "och": 28166,
  "pam": 14089,
  "##pse": 29251,
  "eun": 26070,
  "wrinkled": 15968,
  "sloop": 24786,
  "##iste": 27870,
  "##lating": 22248,
  "paw": 22195,
  "bodied": 22549,
  "rory": 14285,
  "objects": 5200,
  "turns": 4332,
  "ida": 16096,
  "confronting": 26964,
  "bass": 3321,
  "puts": 8509,
  "stadion": 20756,
  "reaction": 4668,
  "pep": 27233,
  "mainstream": 7731,
  "entered": 3133,
  "bono": 23648,
  "weird": 6881,
  "##cute": 26869,
  "##[": 29634,
  "lin": 11409,
  "blessed": 10190,
  "nightclub": 15479,
  "##tive": 6024,
  "strange": 4326,
  "security": 3036,
  "meath": 26856,
  "shards": 23327,
  "undrafted": 21347,
  "hoop": 27669,
  "##ssar": 25556,
  "##und": 8630,
  "sewage": 19873,
  "sample": 7099,
  "marche": 28791,
  "##nea": 22084,
  "diana": 8805,
  "counted": 8897,
  "munitions": 21061,
  "episode": 2792,
  "martini": 24480,
  "help": 2393,
  "ranked": 4396,
  "jon": 6285,
  "uncomfortably": 22502,
  "buster": 18396,
  "leash": 26834,
  "wong": 11789,
  "##rained": 27361,
  "billions": 25501,
  "hacked": 28719,
  "hauled": 13161,
  "##rar": 19848,
  "##creen": 24410,
  "ை": 1399,
  "mal": 15451,
  "wanted": 2359,
  "types": 4127,
  "[unused602]": 607,
  "##rien": 23144,
  "aaron": 7158,
  "boulder": 13264,
  "cluster": 9324,
  "##eti": 20624,
  "appalled": 29279,
  "1644": 23477,
  "aldo": 28163,
  "softened": 16573,
  "corners": 8413,
  "##vo": 6767,
  "djs": 23837,
  "liechtenstein": 26500,
  "drone": 18465,
  "fuss": 28554,
  "checks": 14148,
  "advising": 23875,
  "elbow": 8999,
  "口": 1788,
  "racers": 25791,
  "resident": 6319,
  "##icus": 14239,
  "##cha": 7507,
  "ap": 9706,
  "weakening": 22031,
  "successive": 11165,
  "overland": 21400,
  "reunite": 25372,
  "fee": 7408,
  "womb": 26578,
  "identifiable": 27800,
  "proceed": 10838,
  "pictured": 15885,
  "invariant": 23915,
  "##義": 30462,
  "[unused549]": 554,
  "akin": 17793,
  "partially": 6822,
  "looked": 2246,
  "preseason": 20038,
  "par": 11968,
  "ヒ": 1719,
  "[unused925]": 930,
  "attacking": 7866,
  "excerpt": 28142,
  "hurting": 11878,
  "primarily": 3952,
  "ₕ": 1564,
  "mccann": 28641,
  "looks": 3504,
  "##suit": 28880,
  "publicity": 11845,
  "heinz": 17655,
  "xander": 29019,
  "decatur": 27783,
  "##aghan": 26685,
  "promotes": 14067,
  "[unused957]": 962,
  "easily": 4089,
  "vitamin": 17663,
  "flavors": 26389,
  "leaks": 29324,
  "##gal": 9692,
  "blockade": 15823,
  "##ـ": 29832,
  "imitation": 20017,
  "waivers": 28654,
  "rachel": 5586,
  "recycled": 22207,
  "role": 2535,
  "blooms": 29037,
  "neighborhoods": 11681,
  "serum": 20194,
  "nerves": 10627,
  "colonization": 18962,
  "alexandra": 10481,
  "lorraine": 13895,
  "vampires": 6144,
  "mentoring": 29192,
  "virginia": 3448,
  "nightmares": 15446,
  "bangladesh": 7269,
  "psalm": 22728,
  "tough": 7823,
  "hovered": 18190,
  "##ש": 29812,
  "##rcle": 21769,
  "lehigh": 23241,
  "accessibility": 23661,
  "essentially": 7687,
  "##ˈ": 29715,
  "elsewhere": 6974,
  "hopefully": 11504,
  "##flict": 29301,
  "days": 2420,
  "##bad": 9024,
  "masks": 15806,
  "coptic": 27672,
  "1729": 28449,
  "##df": 20952,
  "anthologies": 25675,
  "melodies": 16106,
  "[unused986]": 991,
  "adam": 4205,
  "nebula": 25677,
  "courtship": 28592,
  "215": 17405,
  "##ₐ": 30089,
  "##lden": 28476,
  "reintroduced": 28263,
  "resemblance": 14062,
  "natives": 12493,
  "bacon": 11611,
  "[unused240]": 245,
  "clara": 10254,
  "gaul": 26522,
  "39th": 22702,
  "##צ": 29809,
  "##point": 8400,
  "1940": 3878,
  "petals": 15829,
  "##☆": 30148,
  "elevators": 19406,
  "crossroads": 16760,
  "announce": 14970,
  "ripping": 17039,
  "julius": 10396,
  "##hus": 9825,
  "roberta": 23455,
  "binoculars": 29549,
  "electric": 3751,
  "##odon": 28716,
  "serials": 28172,
  "antibiotics": 24479,
  "skaters": 24789,
  "[unused428]": 433,
  "rio": 5673,
  "1946": 3918,
  "cornice": 27848,
  "##ition": 22753,
  "avid": 18568,
  "leaving": 2975,
  "finite": 10713,
  "brewers": 20007,
  "founders": 8759,
  "wiped": 8342,
  "theo": 14833,
  "feature": 3444,
  "##tia": 10711,
  "waitress": 13877,
  "fancy": 11281,
  "remarried": 19316,
  "bends": 23394,
  "primate": 25662,
  "vijay": 17027,
  "planes": 9738,
  "77": 6255,
  "southern": 2670,
  "symphonies": 29355,
  "downfall": 22252,
  "oakland": 9182,
  "rattle": 23114,
  "##logue": 24277,
  "basin": 6403,
  "fame": 4476,
  "spit": 13183,
  "ruthless": 18101,
  "samson": 18375,
  "rumbled": 22257,
  "altogether": 10462,
  "riches": 26768,
  "albrecht": 25542,
  "contained": 4838,
  "so": 2061,
  "sugarcane": 28910,
  "suite": 7621,
  "insisted": 7278,
  "##vary": 21639,
  "scholastic": 24105,
  "1898": 6068,
  "post": 2695,
  "accomplishments": 17571,
  "proper": 5372,
  "cavendish": 23570,
  "rockies": 22366,
  "meet": 3113,
  "undeveloped": 29341,
  "jarrett": 24503,
  "##rell": 16230,
  "』": 1644,
  "##onte": 28040,
  "reinforcements": 14214,
  "ars": 29393,
  "bandits": 19088,
  "wry": 24639,
  "blacks": 10823,
  "sydney": 3994,
  "populace": 22508,
  "anaheim": 20835,
  "tom": 3419,
  "##bay": 15907,
  "##hop": 18471,
  "aground": 29406,
  "question": 3160,
  "scraped": 20378,
  "coaches": 7850,
  "malaria": 19132,
  "delicately": 28814,
  "[unused649]": 654,
  "chair": 3242,
  "御": 1847,
  "##loe": 26846,
  "rides": 12271,
  "##heart": 22375,
  "c2": 29248,
  "##zan": 13471,
  "feb": 13114,
  "reprinted": 13603,
  "wrestle": 25579,
  "##tops": 25181,
  "scripture": 18919,
  "##mering": 27851,
  "##guide": 28582,
  "##rites": 28884,
  "chairs": 8397,
  "vamp": 20279,
  "1988": 2997,
  "tucked": 9332,
  "similarity": 14402,
  "##version": 27774,
  "mandir": 22700,
  "##py": 7685,
  "1816": 12357,
  "clade": 21697,
  "columnist": 13317,
  "disqualification": 27782,
  "##wall": 9628,
  "##dara": 25329,
  "##iki": 17471,
  "referred": 3615,
  "willingness": 19732,
  "baker": 6243,
  "ր": 1237,
  "##isi": 17417,
  "hesitate": 16390,
  "connacht": 27062,
  "gases": 15865,
  "child": 2775,
  "processed": 13995,
  "palm": 5340,
  "secure": 5851,
  "letters": 4144,
  "deployed": 7333,
  "##sden": 27903,
  "blackburn": 13934,
  "1973": 3381,
  "monterey": 19860,
  "##gn": 16206,
  "merit": 7857,
  "juarez": 25398,
  "bayer": 26367,
  "flickered": 15999,
  "kettle": 22421,
  "welch": 17939,
  "winery": 23910,
  "caine": 19881,
  "halftime": 22589,
  "objective": 7863,
  "##horn": 9769,
  "devotees": 22707,
  "routing": 16972,
  "think": 2228,
  "appreciation": 12284,
  "[unused374]": 379,
  "[unused279]": 284,
  "##cey": 25810,
  "##eh": 11106,
  "soared": 29127,
  "clint": 16235,
  "coincided": 18616,
  "contacts": 10402,
  "saints": 6586,
  "charity": 5952,
  "##stadt": 21543,
  "accomplished": 8885,
  "cobb": 17176,
  "ollie": 25208,
  "worcestershire": 20218,
  "1942": 3758,
  "murderous": 25303,
  "royal": 2548,
  "dem": 17183,
  "watt": 15231,
  "286": 24921,
  "graham": 5846,
  "vested": 26003,
  "smiling": 5629,
  "refrain": 20703,
  "innings": 7202,
  "cambodia": 12899,
  "▪": 1618,
  "nerve": 9113,
  "rankings": 10385,
  "ச": 1383,
  "##itaire": 29422,
  "##rmi": 28550,
  "gabled": 26182,
  "395": 24673,
  "cale": 21854,
  "[unused154]": 159,
  "buena": 27493,
  "##п": 29746,
  "wharf": 16435,
  "##haya": 26115,
  "barrett": 12712,
  "[unused654]": 659,
  "argus": 25294,
  "bahn": 17392,
  "initiative": 6349,
  "[unused506]": 511,
  "trunks": 20509,
  "bangkok": 12627,
  "transmitted": 11860,
  "words": 2616,
  "vargas": 20556,
  "##minated": 26972,
  "breathed": 8726,
  "deity": 12764,
  "casts": 23942,
  "recent": 3522,
  "landfall": 21042,
  "tablet": 13855,
  "guardian": 6697,
  "lagos": 16738,
  "[unused706]": 711,
  "banco": 28678,
  "violins": 25877,
  "estimated": 4358,
  "##orescence": 20030,
  "algorithm": 9896,
  "blanc": 18698,
  "[unused779]": 784,
  "truths": 23019,
  "##／": 30518,
  "genealogical": 29606,
  "kristina": 28802,
  "divided": 4055,
  "librarian": 13850,
  "charismatic": 23916,
  "soyuz": 29412,
  "##skin": 29334,
  "##yal": 21095,
  "moore": 5405,
  "##gui": 25698,
  "concurrency": 24154,
  "##taking": 17904,
  "meyrick": 15228,
  "castes": 26254,
  "##oted": 27428,
  "arrangements": 7565,
  "##ᅪ": 30012,
  "pont": 21179,
  "cherokee": 13796,
  "##uising": 28580,
  "pirate": 11304,
  "predecessor": 8646,
  "majestic": 22337,
  "unison": 18732,
  "cereal": 20943,
  "impending": 17945,
  "jobs": 5841,
  "expressway": 11720,
  "cornish": 17797,
  "hiroshi": 26882,
  "matilda": 17981,
  "gaps": 16680,
  "prompted": 9469,
  "tre": 29461,
  "##ually": 28488,
  "punish": 16385,
  "instructors": 19922,
  "aside": 4998,
  "[unused646]": 651,
  "envoy": 19918,
  "antibodies": 22931,
  "##raf": 27528,
  "う": 1648,
  "gymnast": 25055,
  "repay": 24565,
  "hat": 6045,
  "diverse": 7578,
  "plain": 5810,
  "peoples": 7243,
  "##ʿ": 29714,
  "[unused780]": 785,
  "utilized": 12550,
  "##runner": 23195,
  "beat": 3786,
  "besides": 4661,
  "##eller": 24038,
  "strategies": 9942,
  "##film": 23665,
  "##group": 17058,
  "goldman": 17765,
  "accurately": 14125,
  "##khov": 25495,
  "##ivated": 21967,
  "opted": 12132,
  "frail": 25737,
  "constitution": 4552,
  "##橋": 30411,
  "jaguar": 16490,
  "singing": 4823,
  "##崎": 30360,
  "purposes": 5682,
  "secretary": 3187,
  "sampling": 16227,
  "tobago": 17247,
  "satisfying": 17087,
  "name": 2171,
  "##urity": 25137,
  "β": 1156,
  "workplace": 16165,
  "examples": 4973,
  "wal": 24547,
  "bodo": 28137,
  "susanna": 26681,
  "important": 2590,
  "##kel": 11705,
  "represent": 5050,
  "og": 13958,
  "duncan": 7343,
  "odessa": 19693,
  "##dro": 22196,
  "asserted": 13647,
  "こ": 1655,
  "¬": 1078,
  "[unused224]": 229,
  "##eria": 11610,
  "ranges": 8483,
  "##nessy": 25441,
  "amazed": 15261,
  "popping": 20095,
  "ᆯ": 1486,
  "ceramics": 17314,
  "mag": 23848,
  "salvage": 18340,
  "##cloth": 23095,
  "##fighter": 20027,
  "que": 10861,
  "maccabi": 24055,
  "softness": 27012,
  "ken": 6358,
  "scranton": 26123,
  "ref": 25416,
  "ginger": 14580,
  "hierarchy": 12571,
  "##dle": 10362,
  "segments": 9214,
  "unitarian": 25477,
  "comical": 29257,
  "occupy": 11494,
  "oversaw": 14105,
  "col": 8902,
  "re": 2128,
  "##tology": 23479,
  "shadowy": 22801,
  "keating": 25865,
  "##swell": 19228,
  "destination": 7688,
  "##phones": 19093,
  "harassment": 16011,
  "[unused67]": 68,
  "cornelius": 17354,
  "ʐ": 1136,
  "adler": 17969,
  "##xt": 18413,
  "blindness": 26290,
  "hurdle": 27630,
  "##iso": 19565,
  "predict": 16014,
  "eight": 2809,
  "qualification": 8263,
  "##ほ": 30202,
  "hostel": 21071,
  "favorites": 20672,
  "walter": 4787,
  "##gc": 18195,
  "##भ": 29866,
  "##lls": 12718,
  "##ioned": 19798,
  "marvel": 8348,
  "pierced": 16276,
  "##53": 22275,
  "##illo": 10486,
  "aspects": 5919,
  "wrongly": 29116,
  "##^": 29637,
  "covent": 29456,
  "##sh": 4095,
  "livery": 18475,
  "flora": 10088,
  "##jou": 23099,
  "honda": 11990,
  "clap": 28618,
  "gardens": 5822,
  "illinois": 4307,
  "needy": 23927,
  "troubles": 13460,
  "⅓": 1581,
  "passions": 25289,
  "milk": 6501,
  "carrot": 25659,
  "res": 24501,
  "director": 2472,
  "##ossa": 21842,
  "##lb": 20850,
  "males": 3767,
  "honourable": 17164,
  "##bu": 8569,
  "interchange": 8989,
  "里": 1962,
  "artery": 16749,
  "nuclei": 23767,
  "sic": 14387,
  "deciduous": 22411,
  "medici": 22605,
  "qi": 18816,
  "##inge": 23496,
  "##rice": 17599,
  "gunter": 27834,
  "clover": 25133,
  "contestant": 10832,
  "comedian": 9971,
  "manual": 6410,
  "trump": 8398,
  "hawthorn": 21671,
  "tate": 9902,
  "ff": 21461,
  "center": 2415,
  "baha": 13253,
  "confrontation": 13111,
  "rhodesia": 20340,
  "ruined": 9868,
  "citation": 11091,
  "crowd": 4306,
  "##65": 26187,
  "680": 23944,
  "onions": 24444,
  "occasion": 6686,
  "agreed": 3530,
  "##ged": 5999,
  "会": 1763,
  "##bek": 24597,
  "##mity": 16383,
  "[unused899]": 904,
  "##シ": 30232,
  "hermes": 24127,
  "supreme": 4259,
  "dept": 29466,
  "##ख": 29852,
  "##rad": 12173,
  "baltimore": 6222,
  "furnace": 17533,
  "flanders": 13998,
  "fr": 10424,
  "authentication": 27280,
  "cognition": 26497,
  "acknowledging": 21894,
  "browser": 16602,
  "juan": 5348,
  "whereabouts": 18913,
  "##ntino": 25318,
  "ether": 28855,
  "阿": 1971,
  "ہ": 1308,
  "pip": 28315,
  "narrative": 7984,
  "heading": 5825,
  "virtual": 7484,
  "cheating": 16789,
  "contaminated": 19450,
  "##reus": 23446,
  "drainage": 11987,
  "readers": 8141,
  "##rite": 17625,
  "describes": 5577,
  "[unused64]": 65,
  "[unused777]": 782,
  "tracey": 25984,
  "メ": 1726,
  "##light": 7138,
  "1725": 25651,
  "enforcement": 7285,
  "##mit": 22930,
  "stuart": 6990,
  "##ワ": 30262,
  "earthquakes": 17932,
  "cylindrical": 18797,
  "hold": 2907,
  "economic": 3171,
  "°": 1080,
  "[unused151]": 156,
  "##eke": 23941,
  "ি": 1379,
  "դ": 1222,
  "upper": 3356,
  "hated": 6283,
  "consolidation": 17439,
  "ark": 15745,
  "bjorn": 24998,
  "[unused468]": 473,
  "##dies": 18389,
  "excavation": 16456,
  "adapt": 15581,
  "carson": 9806,
  "occur": 5258,
  "processes": 6194,
  "##ᵀ": 30031,
  "zeus": 15208,
  "myths": 17218,
  "republicans": 10643,
  "rammed": 27653,
  "regan": 16964,
  "hereditary": 14800,
  "1870": 6940,
  "strode": 11885,
  "##rera": 24068,
  "registry": 15584,
  "tracking": 9651,
  "editing": 9260,
  "tucker": 9802,
  "stairwell": 22109,
  "##ulin": 18639,
  "yale": 7996,
  "disciples": 17102,
  "##ungen": 23239,
  "spirituality": 21244,
  "1697": 28690,
  "ambush": 15283,
  "exciting": 10990,
  "weather": 4633,
  "emptiness": 23397,
  "trusted": 9480,
  "bracelet": 19688,
  "jayne": 24408,
  "signs": 5751,
  "##kis": 14270,
  "[unused430]": 435,
  "history": 2381,
  "sparhawk": 13709,
  "visitation": 28877,
  "[unused209]": 214,
  "mighty": 10478,
  "couples": 6062,
  "pacing": 15732,
  "cornwall": 10387,
  "23": 2603,
  "awhile": 19511,
  "bradley": 8981,
  "kingdom": 2983,
  "##dya": 25838,
  "cannons": 17138,
  "delight": 12208,
  "travis": 10001,
  "nomenclature": 23718,
  "1746": 24507,
  "levi": 11902,
  "admire": 19837,
  "##rz": 15378,
  "[unused800]": 805,
  "murderer": 13422,
  "hospital": 2902,
  "noticeable": 17725,
  "##dc": 16409,
  "164": 17943,
  "##ography": 9888,
  "karel": 28021,
  "##dilly": 28832,
  "flags": 9245,
  "fontaine": 25749,
  "05": 5709,
  "downstairs": 10025,
  "shawn": 13218,
  "youngest": 6587,
  "##dell": 12662,
  "magnificent": 12047,
  "nat": 14085,
  "##fc": 11329,
  "##door": 23835,
  "requiem": 21199,
  "##ych": 17994,
  "葉": 1943,
  "##ng": 3070,
  "combined": 4117,
  "sake": 8739,
  "gorman": 25693,
  "clipped": 20144,
  "ruins": 8435,
  "[unused448]": 453,
  "##alia": 22786,
  "##kon": 19648,
  "antarctic": 10227,
  "##lous": 15534,
  "lineage": 13321,
  "buses": 7793,
  "ridiculous": 9951,
  "ш": 1203,
  "norte": 19931,
  "serbia": 7238,
  "permits": 14245,
  "strolled": 20354,
  "90": 3938,
  "##ius": 4173,
  "routine": 9410,
  "austin": 5899,
  "ᵖ": 1504,
  "township": 3545,
  "jarvis": 21072,
  "flinch": 23224,
  "salle": 18005,
  "lunatic": 26594,
  "##る": 30213,
  "banjo": 16698,
  "anxiety": 10089,
  "efficient": 8114,
  "##nee": 24045,
  "damien": 12587,
  "竹": 1933,
  "roasted": 28115,
  "attacker": 17346,
  "##པ": 29966,
  "latitude": 15250,
  "##tra": 6494,
  "comments": 7928,
  "gallon": 25234,
  "ව": 1407,
  "creep": 19815,
  "##lke": 28143,
  "sexes": 21024,
  "##sti": 16643,
  "nagasaki": 27107,
  "warmed": 17336,
  "racecourse": 15948,
  "##ata": 6790,
  "##ism": 2964,
  "preview": 19236,
  "devlin": 24389,
  "##ed": 2098,
  "##el": 2884,
  "borrowing": 23733,
  "antioch": 19078,
  "turkey": 4977,
  "sect": 17831,
  "ʃ": 1130,
  "steele": 12872,
  "agriculture": 5237,
  "[unused721]": 726,
  "##enay": 27727,
  "1912": 4878,
  "cr": 13675,
  "windmill": 25367,
  "##dna": 28911,
  "concern": 5142,
  "ike": 25209,
  "bitter": 8618,
  "₅": 1552,
  "arise": 13368,
  "lincoln": 5367,
  "maximize": 25845,
  "and": 1998,
  "aforementioned": 17289,
  "yugoslavia": 8936,
  "disagree": 21090,
  "void": 11675,
  "followers": 8771,
  "##vity": 24872,
  "handed": 4375,
  "lattice": 17779,
  "individually": 14258,
  "##zia": 12871,
  "fragment": 15778,
  "screenings": 25437,
  "bangs": 28490,
  "textiles": 18762,
  "[unused868]": 873,
  "melinda": 23721,
  "##ting": 3436,
  "##utz": 20267,
  "beirut": 15335,
  "thump": 21324,
  "shreveport": 23740,
  "[unused91]": 92,
  "ᆼ": 1489,
  "smartphone": 26381,
  "rum": 19379,
  "insulting": 23979,
  "##rer": 14544,
  "deleted": 17159,
  "##∂": 30120,
  "phil": 6316,
  "stormy": 24166,
  "dammit": 20878,
  "sinatra": 19643,
  "conventions": 12472,
  "##⅓": 30109,
  "##vre": 12229,
  "recommendation": 12832,
  "[unused520]": 525,
  "northwestern": 7855,
  "jennifer": 7673,
  "##uj": 23049,
  "willow": 11940,
  "##ground": 16365,
  "島": 1833,
  "scaling": 25169,
  "##ppy": 27659,
  "ohio": 4058,
  "erasmus": 26809,
  "creature": 6492,
  "jade": 12323,
  "slippery": 22274,
  "warmer": 16676,
  "telescope": 12772,
  "faux": 29276,
  "chests": 28717,
  "##mental": 26901,
  "oral": 8700,
  "sugar": 5699,
  "##lem": 16930,
  "##jhl": 29001,
  "adhere": 25276,
  "##hini": 20535,
  "remodeled": 27170,
  "met": 2777,
  "environmentally": 25262,
  "λ": 1165,
  "##quisite": 24871,
  "specializing": 14055,
  "1632": 28216,
  "champs": 29008,
  "##志": 30377,
  "sanders": 12055,
  "finer": 26954,
  "maybe": 2672,
  "favourites": 28271,
  "2007": 2289,
  "96": 5986,
  "instant": 7107,
  "##事": 30277,
  "unicode": 27260,
  "##ilised": 21758,
  "roy": 6060,
  "mcgill": 17919,
  "chaired": 12282,
  "bandit": 25334,
  "operation": 3169,
  "belts": 18000,
  "rodgers": 15652,
  "damned": 9636,
  "mindanao": 23669,
  "algeria": 11337,
  "automated": 12978,
  "barrow": 15355,
  "1859": 8165,
  "widespread": 6923,
  "##planes": 26634,
  "ended": 3092,
  "06": 5757,
  "dani": 19522,
  "slovenia": 10307,
  "larvae": 9673,
  "drown": 19549,
  "tray": 11851,
  "loud": 5189,
  "russian": 2845,
  "penetrating": 22391,
  "tires": 13310,
  "tease": 18381,
  "c1": 27723,
  "entourage": 25342,
  "peat": 23366,
  "joy": 6569,
  "embark": 28866,
  "spine": 8560,
  "1744": 25846,
  "salsa": 26509,
  "rows": 10281,
  "##vable": 12423,
  "embracing": 23581,
  "jude": 12582,
  "trilogy": 11544,
  "biscuits": 27529,
  "listened": 7791,
  "en": 4372,
  "nicole": 9851,
  "heidi": 21372,
  "##vinsky": 27704,
  "entrusted": 18011,
  "##gens": 21230,
  "kayla": 26491,
  "rudy": 18254,
  "lock": 5843,
  "foe": 22277,
  "sub": 4942,
  "##vic": 7903,
  "325": 19652,
  "scare": 12665,
  "fleetwood": 23866,
  "administer": 21497,
  "friendships": 28956,
  "backyard": 16125,
  "[unused142]": 147,
  "realises": 25924,
  "eduard": 20424,
  "avoided": 9511,
  "worry": 4737,
  "espana": 20678,
  "motor": 5013,
  "malaysian": 11843,
  "needles": 17044,
  "goo": 27571,
  "excitement": 8277,
  "indices": 29299,
  "enrollment": 10316,
  "zone": 4224,
  "aston": 14327,
  "molded": 27992,
  "sweet": 4086,
  "pledged": 16970,
  "photographs": 7008,
  "##pping": 14853,
  "##sir": 29481,
  "needing": 11303,
  "weber": 13351,
  "christophe": 23978,
  "clary": 13145,
  "closeness": 28398,
  "coop": 21859,
  "##lman": 12624,
  "naia": 29511,
  "municipality": 3250,
  "centres": 8941,
  "##oit": 28100,
  "##eering": 20550,
  "landmark": 8637,
  "murderers": 28882,
  "hospitals": 8323,
  "wig": 24405,
  "famous": 3297,
  "como": 18609,
  "elliptic": 29413,
  "sec": 10819,
  "finds": 4858,
  "treating": 12318,
  "¤": 1070,
  "peers": 12746,
  "peters": 12420,
  "etched": 20286,
  "subunit": 24312,
  "analogy": 23323,
  "##unda": 18426,
  "selection": 4989,
  "rabbit": 10442,
  "taxonomy": 25274,
  "deposit": 12816,
  "complete": 3143,
  "alexandria": 10297,
  "[unused77]": 78,
  "grease": 21956,
  "quantitative": 20155,
  "jolly": 22193,
  "criticisms": 19628,
  "kilometer": 20595,
  "##dles": 27822,
  "ordinary": 6623,
  "##gizing": 28660,
  "trek": 10313,
  "straighten": 28568,
  "demonstrators": 28337,
  "[unused557]": 562,
  "confirmation": 13964,
  "tequila": 26791,
  "liv": 22135,
  "holmes": 9106,
  "spared": 16891,
  "divisional": 14167,
  "##rka": 22379,
  "##lette": 27901,
  "derives": 12153,
  "দ": 1364,
  "genetic": 7403,
  "[unused672]": 677,
  "lens": 10014,
  "cis": 20199,
  "sits": 7719,
  "hugs": 24459,
  "##sfield": 15951,
  "settling": 9853,
  "##ept": 23606,
  "told": 2409,
  "royce": 14789,
  "mattress": 13342,
  "reborn": 24910,
  "1653": 29309,
  "2005": 2384,
  "[unused275]": 280,
  "neighbours": 14754,
  "door": 2341,
  "iso": 11163,
  "marino": 17185,
  "75th": 25092,
  "handel": 21465,
  "##aq": 20784,
  "##־": 29787,
  "enlist": 28845,
  "blogger": 28205,
  "##ntly": 20630,
  "mental": 5177,
  "inched": 25330,
  "reviews": 4391,
  "staple": 18785,
  "sebastien": 28328,
  "commonwealth": 5663,
  "##mia": 10092,
  "astronomy": 12799,
  "##oat": 16503,
  "squat": 26783,
  "etymology": 26803,
  "##´": 29658,
  "fantastic": 10392,
  "##vao": 24682,
  "element": 5783,
  "colourful": 26102,
  "tentatively": 19325,
  "safe": 3647,
  "pee": 21392,
  "512": 24406,
  "郡": 1959,
  "##tula": 28970,
  "campaigning": 18524,
  "##oma": 9626,
  "[unused648]": 653,
  "hopkins": 10239,
  "##版": 30433,
  "ty": 5939,
  "adolf": 12500,
  "m3": 29061,
  "##gni": 29076,
  "math": 8785,
  "displacement": 13508,
  "mesa": 15797,
  "cages": 27157,
  "boycott": 17757,
  "synonymous": 22594,
  "sarawak": 21546,
  "suppressed": 13712,
  "operational": 6515,
  "knotted": 27039,
  "sd": 17371,
  "verve": 29230,
  "waltz": 17569,
  "ล": 1418,
  "grandmother": 7133,
  "clouds": 8044,
  "66": 5764,
  "efficacy": 21150,
  "dependence": 18642,
  "achieve": 6162,
  "1732": 27582,
  "[unused301]": 306,
  "##jin": 14642,
  "blazing": 17162,
  "##ο": 29730,
  "##belle": 25766,
  "##aba": 19736,
  "traction": 16493,
  "draped": 15098,
  "##rance": 21621,
  "increased": 3445,
  "2004": 2432,
  "caledonian": 27449,
  "allen": 5297,
  "georgian": 9166,
  "letterman": 26593,
  "isil": 19600,
  "1811": 13086,
  "##mona": 21781,
  "##rano": 20770,
  "marijuana": 16204,
  "seychelles": 27438,
  "regard": 7634,
  "emphasize": 17902,
  "impossible": 5263,
  "dave": 4913,
  "grains": 17588,
  "tattooed": 26464,
  "##ities": 6447,
  "boundaries": 7372,
  "brushing": 12766,
  "targets": 7889,
  "thumbs": 16784,
  "criticizing": 21289,
  "##dance": 25514,
  "sights": 15925,
  "setting": 4292,
  "##a1": 27717,
  "kochi": 27603,
  "survivor": 12084,
  "insignificant": 27018,
  "psychic": 12663,
  "unpublished": 19106,
  "swift": 9170,
  "160": 8148,
  "agustin": 26889,
  "[unused855]": 860,
  "##wave": 16535,
  "##resh": 21898,
  "dust": 6497,
  "stuffed": 11812,
  "##有": 30399,
  "shaped": 5044,
  "rpm": 11575,
  "volume": 3872,
  "##lu": 7630,
  "climax": 14463,
  "£3": 28182,
  "tattoo": 11660,
  "winds": 7266,
  "##rug": 26549,
  "1854": 8421,
  "stoke": 13299,
  "stabbing": 21690,
  "lodged": 20451,
  "##kken": 24192,
  "cranes": 27083,
  "[unused847]": 852,
  "52": 4720,
  "betty": 9306,
  "cote": 17155,
  "##bang": 25153,
  "magnesium": 24983,
  "##ect": 22471,
  "seville": 18983,
  "manor": 6952,
  "renal": 25125,
  "##herton": 27949,
  "##aring": 22397,
  "[unused500]": 505,
  "architect": 4944,
  "resisting": 22363,
  "dismissal": 15322,
  "busted": 23142,
  "commended": 22429,
  "##lom": 21297,
  "##wk": 26291,
  "73": 6421,
  "##acious": 20113,
  "peanut": 21443,
  "dash": 11454,
  "##ntation": 23436,
  "her": 2014,
  "relic": 24933,
  "lyndon": 23037,
  "##neil": 27276,
  "[unused61]": 62,
  "reasons": 4436,
  "monetary": 12194,
  "tailored": 21727,
  "density": 4304,
  "monitored": 17785,
  "architecture": 4294,
  "flavor": 14894,
  "tessa": 13167,
  "disciplinary": 17972,
  "##bbies": 27982,
  "heroism": 27117,
  "commander": 3474,
  "##person": 27576,
  "knob": 16859,
  "##eyer": 20211,
  "##use": 8557,
  "##め": 30206,
  "present": 2556,
  "##oked": 23461,
  "update": 10651,
  "leather": 5898,
  "dodged": 28339,
  "書": 1871,
  "palatinate": 18990,
  "do": 2079,
  "##eber": 22669,
  "cautiously": 15151,
  "podium": 14502,
  "##kir": 23630,
  "salim": 27490,
  "implementations": 24977,
  "##fighting": 22158,
  "##dden": 17101,
  "[unused555]": 560,
  "academie": 19669,
  "ɣ": 1117,
  "jeremy": 7441,
  "roma": 12836,
  "##mun": 23041,
  "jurassic": 19996,
  "beale": 28371,
  "appeal": 5574,
  "tombstone": 26671,
  "##bution": 29446,
  "totally": 6135,
  "burr": 22715,
  "hawk": 9881,
  "##hani": 23573,
  "conde": 24707,
  "ochreous": 23474,
  "gray": 3897,
  "##’": 30056,
  "netball": 25034,
  "coastal": 5780,
  "##mmer": 15810,
  "appetite": 18923,
  "orbiting": 26472,
  "[unused185]": 190,
  "##ht": 11039,
  "##ecin": 28191,
  "specifies": 27171,
  "##keeping": 18321,
  "restricted": 7775,
  "regatta": 26848,
  "ada": 15262,
  "jedi": 27273,
  "corinne": 26879,
  "kai": 11928,
  "[unused387]": 392,
  "pulse": 8187,
  "bath": 7198,
  "##zar": 9057,
  "rite": 14034,
  "[unused628]": 633,
  "germanic": 15139,
  "lucknow": 23571,
  "universities": 5534,
  "bash": 24234,
  "##tland": 19270,
  "reproductive": 15124,
  "##b": 2497,
  "styling": 20724,
  "lai": 21110,
  "perth": 9300,
  "nose": 4451,
  "realize": 5382,
  "sis": 24761,
  "gunmen": 28932,
  "maine": 7081,
  "flesh": 5771,
  "##olved": 16116,
  "ज": 1319,
  "accordion": 19060,
  "creepy": 17109,
  "manage": 6133,
  "falcon": 11684,
  "adjustable": 26404,
  "sampson": 22041,
  "##ucci": 16835,
  "[unused340]": 345,
  "matthew": 5487,
  "coping": 27520,
  "##vr": 19716,
  "##立": 30457,
  "opening": 3098,
  "##ardo": 24649,
  "##ka": 2912,
  "johann": 8968,
  "glance": 6054,
  "##の": 30197,
  "##fall": 13976,
  "[unused568]": 573,
  "perez": 10730,
  "小": 1829,
  "automation": 19309,
  "skating": 10080,
  "##ath": 8988,
  "ᅥ": 1472,
  "bucks": 14189,
  "distribute": 16062,
  "vulnerable": 8211,
  "##÷": 29669,
  "ho": 7570,
  "shi": 11895,
  "maharaja": 21609,
  "suffers": 17567,
  "##ply": 22086,
  "##istle": 24242,
  "##秀": 30454,
  "##mbo": 13344,
  "encompassed": 24058,
  "applies": 12033,
  "miller": 4679,
  "afl": 10028,
  "program": 2565,
  "bundle": 14012,
  "ufo": 24321,
  "promise": 4872,
  "caution": 14046,
  "lectures": 8921,
  "appoint": 16823,
  "1796": 13885,
  "##ho": 6806,
  "grinned": 6973,
  "spin": 6714,
  "graz": 26918,
  "##iga": 13340,
  "ss": 7020,
  "##ring": 4892,
  "falling": 4634,
  "sundays": 14803,
  "##bson": 27355,
  "andres": 15614,
  "mcgrath": 23220,
  "##tr": 16344,
  "galaxies": 21706,
  "fights": 9590,
  "exported": 15612,
  "much": 2172,
  "shields": 11824,
  "東": 1879,
  "accordingly": 11914,
  "gravity": 8992,
  "technical": 4087,
  "unnatural": 21242,
  "##zle": 29247,
  "denominations": 17384,
  "##dict": 29201,
  "corridor": 7120,
  "ₘ": 1567,
  "##kai": 11151,
  "roaming": 24430,
  "earnest": 17300,
  "orthodoxy": 26582,
  "ᆨ": 1484,
  "ships": 3719,
  "nanny": 19174,
  "apart": 4237,
  "ノ": 1717,
  "lynch": 11404,
  "voyage": 8774,
  "##lore": 20186,
  "[unused352]": 357,
  "variance": 23284,
  "persuade": 13984,
  "hiding": 6318,
  "[unused89]": 90,
  "spiders": 14160,
  "jacqueline": 17551,
  "masjid": 27779,
  "##文": 30387,
  "mysore": 20761,
  "payload": 18093,
  "##mation": 28649,
  "serge": 21747,
  "##fahan": 28975,
  "closely": 4876,
  "enrichment": 27226,
  "■": 1617,
  "##iology": 20569,
  "mina": 19808,
  "christchurch": 15880,
  "alleging": 23294,
  "municipal": 4546,
  "quartermaster": 24688,
  "melee": 27868,
  "panicked": 16035,
  "harold": 7157,
  "countess": 11716,
  "laden": 14887,
  "mug": 14757,
  "fixing": 15887,
  "bolivian": 26075,
  "bishopric": 20664,
  "photography": 5855,
  "1742": 25704,
  "showing": 4760,
  "禾": 1927,
  "92": 6227,
  "##cki": 18009,
  "159": 18914,
  "speeds": 10898,
  "alvaro": 24892,
  "##nding": 15683,
  "epa": 19044,
  "properties": 5144,
  "celebrate": 8439,
  "1945": 3386,
  "helmets": 22674,
  "##iography": 26535,
  "521": 26963,
  "reeves": 17891,
  "volunteer": 6951,
  "witty": 25591,
  "mechanism": 7337,
  "1956": 3838,
  "sebastian": 6417,
  "chocolate": 7967,
  "01": 5890,
  "##hausen": 13062,
  "ah": 6289,
  "ft": 3027,
  "issue": 3277,
  "deafening": 28840,
  "patterns": 7060,
  "luggage": 17434,
  "exemplified": 28593,
  "ready": 3201,
  "##grin": 24860,
  "emergencies": 26360,
  "michele": 15954,
  "eurovision": 12714,
  "cairns": 21731,
  "mathematical": 8045,
  "pulpit": 23134,
  "##eration": 16754,
  "gp": 14246,
  "525": 25621,
  "flowers": 4870,
  "julio": 15090,
  "barely": 4510,
  "skyline": 21343,
  "patti": 22732,
  "vague": 13727,
  "##33": 22394,
  "blue": 2630,
  "module": 11336,
  "frustrated": 10206,
  "mayo": 14415,
  "candle": 13541,
  "##²": 10701,
  "prediction": 17547,
  "incorporates": 12374,
  "tourism": 6813,
  "silicon": 13773,
  "##γ": 29721,
  "frigates": 22833,
  "dreamed": 13830,
  "franciscan": 19420,
  "silesia": 21872,
  "##lini": 22153,
  "barracks": 10492,
  "competitions": 6479,
  "accurate": 8321,
  "##ctor": 16761,
  "frost": 10097,
  "148": 16459,
  "repulsed": 24571,
  "pig": 10369,
  "iraqi": 8956,
  "assist": 6509,
  "[unused715]": 720,
  "unhappy": 12511,
  "observers": 14009,
  "##藤": 30470,
  "baden": 12189,
  "wandered": 13289,
  "demos": 18267,
  "mod": 16913,
  "##თ": 29980,
  "categories": 7236,
  "locked": 5299,
  "showdown": 24419,
  "philipp": 20765,
  "offers": 4107,
  "110": 7287,
  "perceived": 8690,
  "##miento": 28883,
  "hartley": 20955,
  "quotes": 16614,
  "facades": 28708,
  "outlying": 25376,
  "righteous": 19556,
  "caesar": 11604,
  "directory": 14176,
  "1965": 3551,
  "torment": 21741,
  "ripped": 9157,
  "##ates": 8520,
  "clandestine": 24450,
  "wages": 12678,
  "##bian": 15599,
  "dear": 6203,
  "##thing": 20744,
  "bills": 8236,
  "checkpoint": 26520,
  "clements": 28572,
  "administratively": 23710,
  "##erie": 17378,
  "buenos": 9204,
  "approximate": 15796,
  "##պ": 29780,
  "warden": 13745,
  "primetime": 18474,
  "1660": 17954,
  "informant": 28694,
  "##mour": 20360,
  "郎": 1958,
  "rowing": 12037,
  "duet": 11979,
  "objected": 15959,
  "illegally": 17800,
  "recall": 9131,
  "edit": 10086,
  "miner": 18594,
  "[unused671]": 676,
  "tonnes": 11000,
  "##son": 3385,
  "org": 8917,
  "##pers": 7347,
  "triggers": 27099,
  "lack": 3768,
  "disapproval": 21406,
  "tc": 22975,
  "subway": 10798,
  "1682": 29478,
  "##ك": 29835,
  "scarborough": 18603,
  "##cino": 21081,
  "banners": 23562,
  "val": 11748,
  "palo": 24326,
  "[unused765]": 770,
  "crumbling": 24827,
  "##食": 30504,
  "beast": 6841,
  "aquino": 24183,
  "##ik": 5480,
  "distinct": 5664,
  "1921": 4885,
  "##ی": 24830,
  "baptism": 18336,
  "costume": 9427,
  "gotham": 22814,
  "ケ": 1703,
  "tally": 19552,
  "isn": 3475,
  "characterized": 7356,
  "stepping": 9085,
  "sammy": 14450,
  "cycle": 5402,
  "[unused992]": 997,
  "##帝": 30364,
  "ා": 1408,
  "abolitionist": 29554,
  "##sal": 12002,
  "garments": 21902,
  "bloomberg": 22950,
  "braun": 21909,
  "weekend": 5353,
  "grammy": 8922,
  "87": 6584,
  "asking": 4851,
  "jase": 18626,
  "remove": 6366,
  "rating": 5790,
  "recorder": 14520,
  "ussr": 10331,
  "ian": 4775,
  "hampshire": 7035,
  "percentage": 7017,
  "twist": 9792,
  "legislatures": 27977,
  "diploma": 9827,
  "##（": 30513,
  "sal": 16183,
  "heights": 7535,
  "mhz": 11413,
  "##ding": 4667,
  "shouted": 6626,
  "bankruptcy": 10528,
  "systematically": 23087,
  "societies": 8384,
  "panties": 12095,
  "botanical": 13194,
  "##chia": 20881,
  "weaver": 14077,
  "##marine": 21966,
  "##đ": 29671,
  "voodoo": 21768,
  "devoted": 7422,
  "##aday": 28039,
  "rebuilt": 7183,
  "numbering": 15200,
  "##ej": 20518,
  "reddish": 14182,
  "sirius": 23466,
  "mice": 12328,
  "strangely": 13939,
  "transparent": 13338,
  "tipped": 11182,
  "##ddle": 20338,
  "popularized": 20339,
  "regulate": 15176,
  "undisclosed": 18206,
  "begin": 4088,
  "##wat": 24281,
  "marking": 10060,
  "##leader": 19000,
  "outfits": 22054,
  "##bant": 29604,
  "seamen": 28671,
  "##drum": 21884,
  "batsman": 13953,
  "flutes": 28453,
  "conversions": 25834,
  "thicker": 19638,
  "vi": 6819,
  "milky": 21582,
  "tony": 4116,
  "judaism": 13725,
  "match": 2674,
  "footsteps": 9717,
  "estrada": 26482,
  "##kou": 24861,
  "diocese": 5801,
  "legislature": 6372,
  "##উ": 29886,
  "tam": 17214,
  "inducing": 29290,
  "lamb": 12559,
  "writhing": 26185,
  "vibe": 21209,
  "drain": 12475,
  "##rri": 18752,
  "slade": 18048,
  "##heimer": 18826,
  "cw": 19296,
  "perennial": 14638,
  "jackson": 4027,
  "pictures": 4620,
  "messy": 18307,
  "fide": 26000,
  "guantanamo": 23094,
  "possess": 10295,
  "ruining": 27853,
  "mcleod": 25363,
  "actors": 5889,
  "church": 2277,
  "matthias": 17885,
  "forgiveness": 17213,
  "hungary": 5872,
  "benton": 18685,
  "[unused935]": 940,
  "behaviour": 9164,
  "factions": 13815,
  "##zone": 15975,
  "1790": 13393,
  "listener": 19373,
  "##very": 27900,
  "muzzle": 17750,
  "finley": 29194,
  "‒": 1515,
  "washington": 2899,
  "running": 2770,
  "##bbling": 15343,
  "devout": 26092,
  "harry": 4302,
  "meade": 26501,
  "cyclic": 23750,
  "varying": 9671,
  "particular": 3327,
  "army": 2390,
  "marvelous": 28851,
  "cochran": 28506,
  "arden": 26225,
  "wishes": 8996,
  "nutrient": 26780,
  "colour": 6120,
  "##ase": 11022,
  "prolific": 12807,
  "seeks": 11014,
  "[unused562]": 567,
  "endangered": 10193,
  "classes": 4280,
  "giants": 7230,
  "##vio": 25500,
  "simpler": 16325,
  "205": 16327,
  "hacking": 23707,
  "##ᅥ": 30008,
  "does": 2515,
  "##ل": 23673,
  "queer": 19483,
  "stale": 26729,
  "novi": 21574,
  "hk": 22563,
  "##ered": 6850,
  "polymers": 27216,
  "threads": 16457,
  "##24": 18827,
  "redding": 26687,
  "[unused266]": 271,
  "metis": 26057,
  "walls": 3681,
  "couldn": 2481,
  "legitimate": 11476,
  "credits": 6495,
  "custody": 9968,
  "falsely": 23123,
  "marco": 8879,
  "rebecca": 9423,
  "engine": 3194,
  "packed": 8966,
  "delayed": 8394,
  "##დ": 29977,
  "harlan": 24276,
  "hiv": 9820,
  "257": 24368,
  "settlers": 7322,
  "950": 20317,
  "##rda": 13639,
  "team": 2136,
  "gaining": 8550,
  "airbus": 20901,
  "amman": 25703,
  "compromised": 20419,
  "##mind": 23356,
  "本": 1876,
  "compulsion": 27638,
  "overhaul": 18181,
  "##nti": 16778,
  "authoritarian": 27246,
  "##hmi": 26837,
  "insurgency": 23939,
  "1960s": 4120,
  "unexpectedly": 14153,
  "haired": 10681,
  "cameron": 7232,
  "government": 2231,
  "exterior": 8829,
  "rouge": 12801,
  "wavelengths": 29263,
  "arias": 25905,
  "##zza": 20715,
  "demand": 5157,
  "##手": 30384,
  "pit": 6770,
  "storytelling": 20957,
  "cooperate": 17654,
  "midnight": 7090,
  "oval": 9242,
  "hoax": 28520,
  "number": 2193,
  "##isches": 27239,
  "easter": 10957,
  "significance": 7784,
  "poems": 5878,
  "marcia": 22548,
  "swayed": 20122,
  "visible": 5710,
  "various": 2536,
  "roared": 14242,
  "crank": 27987,
  "drive": 3298,
  "xiii": 15031,
  "gael": 28151,
  "burke": 9894,
  "##lc": 15472,
  "bel": 19337,
  "##yeh": 25673,
  "maud": 21696,
  "##town": 4665,
  "working": 2551,
  "politicians": 8801,
  "prohibiting": 26325,
  "respective": 7972,
  "level": 2504,
  "madrid": 6921,
  "printed": 6267,
  "##mes": 7834,
  "[unused904]": 909,
  "bouts": 23666,
  "##date": 13701,
  "propose": 16599,
  "##cchi": 25955,
  "glue": 25238,
  "critics": 4401,
  "steps": 4084,
  "##law": 14919,
  "collins": 6868,
  "忄": 1850,
  "efficiently": 18228,
  "purchases": 17402,
  "ham": 10654,
  "subscription": 15002,
  "≥": 1609,
  "##used": 13901,
  "##sities": 24279,
  "##দ": 29900,
  "enoch": 28178,
  "canadians": 16485,
  "218": 20741,
  "##unes": 26639,
  "touch": 3543,
  "[unused550]": 555,
  "inference": 28937,
  "therapy": 7242,
  "clashes": 17783,
  "chopra": 28826,
  "[unused188]": 193,
  "krishna": 10871,
  "dorset": 15367,
  "mare": 11941,
  "##her": 5886,
  "[unused484]": 489,
  "ronnie": 11688,
  "traverse": 20811,
  "painted": 4993,
  "fence": 8638,
  "granted": 4379,
  "darmstadt": 28381,
  "north": 2167,
  "##vier": 14356,
  "whoever": 9444,
  "starbucks": 29500,
  "remarked": 10783,
  "[unused570]": 575,
  "336": 27954,
  "downhill": 19448,
  "##isch": 19946,
  "studying": 5702,
  "parting": 20254,
  "##aith": 22465,
  "visually": 17453,
  "deputy": 4112,
  "penguins": 18134,
  "ո": 1232,
  "[unused811]": 816,
  "mozambique": 16274,
  "crops": 8765,
  "stunts": 28465,
  "cottages": 18918,
  "telegram": 23921,
  "##uding": 24539,
  "veterans": 8244,
  "enrique": 15769,
  "fledged": 26712,
  "ם": 1254,
  "##eter": 15141,
  "stages": 5711,
  "argentine": 8511,
  "##rocity": 21735,
  "##ost": 14122,
  "##thy": 16921,
  "supposedly": 10743,
  "##art": 8445,
  "##nsk": 25564,
  "seating": 10747,
  "##ια": 27432,
  "soon": 2574,
  "snaps": 20057,
  "nicaragua": 15448,
  "clicks": 29225,
  "##ђ": 29758,
  "##ʒ": 29704,
  "##naud": 26160,
  "tomato": 20856,
  "maturity": 16736,
  "lacks": 14087,
  "cecil": 11978,
  "galerie": 17941,
  "##inae": 16414,
  "there": 2045,
  "payne": 13470,
  "estonia": 10692,
  "fore": 18921,
  "##iform": 22631,
  "partial": 7704,
  "disturb": 22995,
  "##mith": 19864,
  "booker": 16674,
  "trigger": 9495,
  "investigations": 9751,
  "entertainment": 4024,
  "yeomanry": 26883,
  "299": 25926,
  "mira": 18062,
  "##um": 2819,
  "##masters": 27751,
  "alexander": 3656,
  "auditory": 28042,
  "unemployment": 12163,
  "accents": 24947,
  "absorb": 16888,
  "amino": 13096,
  "drained": 11055,
  "##：": 30519,
  "stipulated": 25729,
  "gorilla": 23526,
  "candace": 22905,
  "mosaic": 16061,
  "shave": 27545,
  "locate": 12453,
  "superfamily": 24169,
  "freighter": 27945,
  "boeing": 10321,
  "martins": 19953,
  "##pro": 21572,
  "##weight": 11179,
  "chronic": 11888,
  "sm": 15488,
  "midway": 12213,
  "reluctant": 11542,
  "[unused101]": 106,
  "satisfy": 13225,
  "137": 14989,
  "texts": 6981,
  "frontier": 8880,
  "observes": 24451,
  "##hman": 13890,
  "subjective": 20714,
  "narrated": 17356,
  "lurched": 21977,
  "drowned": 12805,
  "gasps": 23813,
  "##wald": 11191,
  "nigerian": 11884,
  "choirs": 24743,
  "eng": 25540,
  "georgetown": 12982,
  "rehab": 24497,
  "##arney": 25831,
  "robotic": 20478,
  "moan": 13673,
  "jonas": 10680,
  "dominic": 11282,
  "##av": 11431,
  "dwelling": 13160,
  "##phone": 9864,
  "edgar": 9586,
  "##lves": 20899,
  "coral": 11034,
  "max": 4098,
  "moffat": 28528,
  "domesday": 22310,
  "precious": 9062,
  "hundred": 3634,
  "1766": 21410,
  "surprises": 20096,
  "friend": 2767,
  "lax": 27327,
  "miss": 3335,
  "##orio": 27416,
  "leap": 11679,
  "eighteen": 7763,
  "policing": 21107,
  "leftist": 24247,
  "tong": 15740,
  "##erine": 24226,
  "sniper": 17515,
  "literal": 18204,
  "corpse": 11547,
  "480": 17295,
  "middle": 2690,
  "##ล": 29954,
  "mountainous": 14897,
  "intra": 26721,
  "[unused440]": 445,
  "zip": 14101,
  "suspension": 8636,
  "educated": 5161,
  "##thic": 23048,
  "madness": 12013,
  "₁": 1548,
  "##chman": 19944,
  "mab": 26661,
  "account": 4070,
  "##cats": 19588,
  "galactic": 21375,
  "underworld": 13607,
  "grouping": 19765,
  "bandwidth": 20235,
  "chancel": 16482,
  "probably": 2763,
  "grab": 6723,
  "occurrence": 14404,
  "trade": 3119,
  "extinct": 8548,
  "floating": 8274,
  "##楊": 30409,
  "##ele": 12260,
  "[unused166]": 171,
  "marxist": 15511,
  "##cide": 27082,
  "african": 3060,
  "##itan": 25451,
  "overwhelming": 10827,
  "##tively": 25499,
  "briefs": 28760,
  "m²": 7030,
  "issn": 23486,
  "[unused296]": 301,
  "distraction": 14836,
  "biographer": 17121,
  "cents": 16653,
  "##え": 30175,
  "memorable": 13432,
  "nagar": 16395,
  "carries": 7883,
  "##von": 17789,
  "powerless": 25192,
  "clair": 17936,
  "authenticity": 21452,
  "##igraphy": 23132,
  "optic": 22816,
  "coached": 8868,
  "puff": 23893,
  "departing": 15971,
  "mata": 22640,
  "##ains": 28247,
  "dominated": 6817,
  "amount": 3815,
  "executed": 6472,
  "exited": 15284,
  "wetlands": 16630,
  "er": 9413,
  "premises": 10345,
  "gazes": 23514,
  "330": 14210,
  "drawers": 22497,
  "badge": 10780,
  "400": 4278,
  "##nine": 19105,
  "rei": 24964,
  "employed": 4846,
  "agile": 29003,
  "seeds": 8079,
  "slid": 4934,
  "intercontinental": 18725,
  "beasts": 15109,
  "laundry": 14533,
  "wc": 15868,
  "denounced": 17787,
  "sold": 2853,
  "ni": 9152,
  "##llar": 17305,
  "resolutions": 18853,
  "##nage": 27031,
  "marcel": 13389,
  "excused": 28512,
  "##meo": 26247,
  "##ifies": 14144,
  "fuck": 6616,
  "privileges": 14310,
  "infamous": 14429,
  "darting": 24567,
  "blackout": 26717,
  "plaza": 8232,
  "sampled": 18925,
  "##ᵐ": 30038,
  "kgb": 25467,
  "honeymoon": 19227,
  "##≈": 30133,
  "##ape": 24065,
  "301": 19123,
  "##oor": 16506,
  "exchange": 3863,
  "##ili": 18622,
  "nigeria": 7387,
  "topography": 21535,
  "populations": 7080,
  "dread": 14436,
  "shook": 3184,
  "[unused226]": 231,
  "composing": 16572,
  "casey": 9036,
  "dressing": 11225,
  "tradition": 4535,
  "cantata": 23629,
  "grumbled": 17030,
  "[unused454]": 459,
  "##kha": 15256,
  "##ics": 6558,
  "breakdown": 12554,
  "tapes": 13324,
  "mutation": 16221,
  "tell": 2425,
  "##ᅡ": 30006,
  "odin": 26195,
  "seneca": 21224,
  "severity": 18976,
  "pussy": 22418,
  "superb": 21688,
  "1939": 3912,
  "origins": 7321,
  "nana": 17810,
  "cannabis": 17985,
  "establishments": 17228,
  "jed": 24401,
  "peerage": 18760,
  "macdonald": 10406,
  "defamation": 27652,
  "1861": 6863,
  "strands": 14119,
  "kitchen": 3829,
  "##sz": 17112,
  "´": 1084,
  "sale": 5096,
  "[unused378]": 383,
  "attendees": 19973,
  "storing": 23977,
  "larkin": 25570,
  "furry": 28662,
  "pod": 17491,
  "##chio": 23584,
  "lowest": 7290,
  "champagne": 12327,
  "##meyer": 24344,
  "##ser": 8043,
  "##wed": 15557,
  "expansive": 25145,
  "strasbourg": 18104,
  "pumped": 16486,
  "unite": 15908,
  "##thal": 24090,
  "flyer": 23821,
  "##夫": 30339,
  "##bri": 23736,
  "screamed": 7210,
  "joel": 8963,
  "##bot": 18384,
  "clapton": 24705,
  "manufacture": 9922,
  "kangaroo": 21652,
  "lived": 2973,
  "297": 27502,
  "##open": 26915,
  "fa": 6904,
  "cia": 9915,
  "rr": 25269,
  "[unused495]": 500,
  "dorothy": 9984,
  "ongoing": 7552,
  "gardiner": 21143,
  "##wara": 11872,
  "allowed": 3039,
  "crisp": 15594,
  "##sius": 24721,
  "##tung": 21847,
  "amazing": 6429,
  "convinced": 6427,
  "##ined": 21280,
  "##ors": 5668,
  "##die": 10265,
  "imagining": 16603,
  "nuns": 16752,
  "uc": 15384,
  "cara": 14418,
  "bounced": 13605,
  "melody": 8531,
  "carver": 20163,
  "random": 6721,
  "worrying": 15366,
  "ণ": 1361,
  "##cier": 19562,
  "adi": 27133,
  "##rath": 27362,
  "starving": 18025,
  "inducted": 8120,
  "karnataka": 12092,
  "・": 1738,
  "celebrated": 6334,
  "probability": 9723,
  "ninja": 14104,
  "israeli": 5611,
  "##rval": 26585,
  "jokes": 13198,
  "》": 1640,
  "skirts": 18184,
  "sar": 18906,
  "minnesota": 5135,
  "##ம": 29925,
  "nobody": 6343,
  "thwarted": 28409,
  "##nos": 15460,
  "jenks": 15119,
  "##ows": 15568,
  "rendering": 14259,
  "##yk": 15922,
  "bae": 25818,
  "mosques": 21922,
  "merging": 16468,
  "##ف": 29833,
  "video": 2678,
  "coat": 5435,
  "communist": 4750,
  "stability": 9211,
  "pastry": 27060,
  "quakers": 28301,
  "550": 13274,
  "unreasonable": 29205,
  "sinclair": 11881,
  "〉": 1638,
  "furnishings": 23127,
  "proprietary": 16350,
  "rewards": 19054,
  "ᵇ": 1497,
  "cinematographer": 19245,
  "wood": 3536,
  "##morphism": 19539,
  "##stle": 22516,
  "principle": 6958,
  "alter": 11477,
  "kong": 4290,
  "seized": 8243,
  "[unused987]": 992,
  "fading": 14059,
  "heightened": 21106,
  "jihad": 24815,
  "operas": 14281,
  "lowland": 15234,
  "##tek": 23125,
  "serie": 8668,
  "##ᄀ": 29991,
  "reykjavik": 28559,
  "astonishing": 26137,
  "escalated": 26814,
  "dog": 3899,
  "tunes": 13281,
  "upscale": 28276,
  "高": 1981,
  "approaches": 8107,
  "jeopardy": 26604,
  "ipad": 25249,
  "siberian": 21822,
  "warp": 24136,
  "ragged": 14202,
  "##eda": 11960,
  "rumours": 19200,
  "[unused282]": 287,
  "##ᄂ": 29992,
  "announces": 17472,
  "[unused963]": 968,
  "tripped": 21129,
  "woke": 8271,
  "reform": 5290,
  "##onal": 16026,
  "[unused309]": 314,
  "savannah": 10891,
  "[unused293]": 298,
  "crystalline": 24628,
  "##pressed": 19811,
  "other": 2060,
  "overlooking": 12549,
  "josie": 15293,
  "stake": 8406,
  "collaborating": 20295,
  "faulkner": 25109,
  "flag": 5210,
  "tertiary": 13553,
  "parallels": 18588,
  "thesis": 9459,
  "coroner": 22896,
  "##emon": 26941,
  "optimistic": 21931,
  "potion": 26722,
  "macy": 20914,
  "600": 5174,
  "longed": 23349,
  "ted": 6945,
  "pixels": 27725,
  "##boards": 15271,
  "##ook": 14659,
  "trooper": 28224,
  "vacated": 15348,
  "compressed": 16620,
  "boarding": 9405,
  "1648": 22533,
  "43": 4724,
  "per": 2566,
  "##ী": 29916,
  "enhancing": 20226,
  "offset": 16396,
  "theorists": 28442,
  "##vis": 11365,
  "quinlan": 28451,
  "[unused473]": 478,
  "veronica": 13133,
  "1919": 4529,
  "##ot": 4140,
  "andrey": 29219,
  "##ო": 29986,
  "albans": 26311,
  "##piration": 16781,
  "ankle": 10792,
  "[unused159]": 164,
  "##氏": 30417,
  "cottage": 9151,
  "fellows": 13572,
  "ʑ": 1137,
  "experiences": 6322,
  "somewhere": 4873,
  "rivalry": 10685,
  "[unused741]": 746,
  "fernando": 9158,
  "horns": 11569,
  "##ckman": 24080,
  "##imating": 22835,
  "catch": 4608,
  "##ז": 29793,
  "##rial": 14482,
  "constabulary": 23791,
  "though": 2295,
  "49": 4749,
  "reader": 8068,
  "capturing": 11847,
  "waistband": 27553,
  "cope": 11997,
  "restoring": 16487,
  "swollen": 13408,
  "##ith": 8939,
  "##bery": 22509,
  "blended": 19803,
  "dull": 10634,
  "##θ": 29725,
  "schwartz": 16756,
  "therapeutic": 17261,
  "erotic": 14253,
  "hurst": 26405,
  "appointed": 2805,
  "fisheries": 13424,
  "galleries": 11726,
  "murders": 9916,
  "enjoy": 5959,
  "lottery": 15213,
  "##ん": 30217,
  "kellogg": 26129,
  "dude": 12043,
  "morrow": 19084,
  "##9th": 25660,
  "##ador": 26467,
  "petrol": 17141,
  "week": 2733,
  "comprised": 11539,
  "relieve": 15804,
  "buren": 29470,
  "unfair": 15571,
  "augustine": 14060,
  "##მ": 29984,
  "forest": 3224,
  "offenders": 19591,
  "ا": 1270,
  "##hr": 8093,
  "cores": 25562,
  "corn": 9781,
  "caitlin": 27555,
  "##ural": 11137,
  "v8": 15754,
  "crimean": 20516,
  "fled": 6783,
  "operatic": 22534,
  "twilight": 13132,
  "cellar": 15423,
  "crystals": 14438,
  "##child": 19339,
  "բ": 1220,
  "corrosion": 24625,
  "food": 2833,
  "ashe": 13402,
  "fun": 4569,
  "[unused464]": 469,
  "##dson": 25112,
  "graded": 21976,
  "battista": 28422,
  "##glass": 15621,
  "pharmaceuticals": 24797,
  "cs": 20116,
  "changes": 3431,
  "doll": 10658,
  "##49": 26224,
  "attitude": 7729,
  "##tial": 20925,
  "glare": 10982,
  "inspect": 22459,
  "husbands": 19089,
  "advanced": 3935,
  "warm": 4010,
  "bennett": 8076,
  "neurological": 23130,
  "hart": 7530,
  "troops": 3629,
  "8th": 5893,
  "հ": 1228,
  "accepted": 3970,
  "specialist": 8325,
  "ranged": 15844,
  "boy": 2879,
  "dictatorship": 18944,
  "outcome": 9560,
  "renamed": 4096,
  "implicated": 20467,
  "mora": 26821,
  "labrador": 18604,
  "paso": 17161,
  "leipzig": 11222,
  "##eles": 26741,
  "nina": 9401,
  "polk": 20819,
  "tipperary": 17333,
  "dismissing": 28913,
  "qualifying": 6042,
  "reproduce": 21376,
  "afterlife": 25115,
  "##м": 29745,
  "marquette": 24223,
  "##vana": 27313,
  "ferrer": 28390,
  "expectation": 17626,
  "##islav": 19834,
  "[unused359]": 364,
  "jeanne": 14537,
  "弘": 1843,
  "dec": 11703,
  "faerie": 27498,
  "lingering": 15304,
  "##ま": 30203,
  "39": 4464,
  "##bone": 14417,
  "sweetheart": 12074,
  "lucille": 28016,
  "congratulations": 23156,
  "[unused607]": 612,
  "plaid": 26488,
  "courtesy": 14571,
  "cosmopolitan": 24686,
  "dancers": 10487,
  "##25": 17788,
  "##dl": 19422,
  "##tained": 28055,
  "reginald": 14435,
  "##aux": 13754,
  "anxiously": 23403,
  "pursed": 21954,
  "##writing": 18560,
  "caucus": 13965,
  "shrill": 28349,
  "##oud": 19224,
  "loving": 8295,
  "404": 24837,
  "paz": 18183,
  "##y": 2100,
  "remastered": 19484,
  "handgun": 28497,
  "yue": 27163,
  "inquisition": 24638,
  "burgess": 17754,
  "jumper": 21097,
  "##ᵏ": 30037,
  "incorporate": 13265,
  "##liche": 27412,
  "##ui": 10179,
  "flights": 7599,
  "coordinator": 10669,
  "wentworth": 20572,
  "1880s": 12751,
  "entrances": 18084,
  "##rane": 18053,
  "yd": 21076,
  "sparkling": 16619,
  "1980": 3150,
  "zulu": 27359,
  "broughton": 29187,
  "canceled": 13261,
  "council": 2473,
  "##ager": 17325,
  "iranian": 7726,
  "##石": 30448,
  "##cala": 25015,
  "##扌": 30385,
  "matters": 5609,
  "amiga": 24126,
  "donnell": 18016,
  "challenged": 8315,
  "bypass": 11826,
  "nationalities": 24904,
  "outward": 15436,
  "門": 1968,
  "obscene": 27744,
  "##haus": 13821,
  "##₄": 17004,
  "##raj": 14220,
  "##z": 2480,
  "##orth": 28610,
  "im": 10047,
  "contiguous": 25177,
  "berkshire": 15570,
  "martina": 23508,
  "branching": 23346,
  "headlined": 25214,
  "##tes": 4570,
  "intervals": 14025,
  "##xie": 16898,
  "inclination": 21970,
  "apparatus": 14709,
  "hepburn": 22004,
  "institution": 5145,
  "assured": 8916,
  "##watch": 18866,
  "broncos": 14169,
  "li": 5622,
  "twenty20": 22240,
  "nueva": 24536,
  "[unused118]": 123,
  "mountains": 4020,
  "##nesia": 21509,
  "erie": 13374,
  "classed": 27811,
  "hayden": 13872,
  "mirrors": 13536,
  "##urt": 19585,
  "mbc": 27262,
  "resentment": 20234,
  "powered": 6113,
  "flying": 3909,
  "vicky": 22845,
  "zu": 16950,
  "peeling": 28241,
  "citing": 8951,
  "hong": 4291,
  "de": 2139,
  "##etz": 26327,
  "tractors": 28292,
  "pitches": 19299,
  "supporter": 10129,
  "pts": 19637,
  "##白": 30441,
  "necessity": 13185,
  "anton": 9865,
  "siblings": 9504,
  "ashland": 24346,
  "tractor": 16358,
  "##kovich": 28195,
  "aristocracy": 22706,
  "winters": 12214,
  "[unused29]": 30,
  "##iger": 17071,
  "##主": 30273,
  "confiscated": 17182,
  "socialists": 21633,
  "##liga": 14715,
  "##ш": 29753,
  "##hari": 18428,
  "##rga": 28921,
  "##uses": 25581,
  "omnibus": 27284,
  "narrowing": 21978,
  "disbanded": 8532,
  "bonds": 9547,
  "combat": 4337,
  "streetcar": 21420,
  "##ire": 7442,
  "nellie": 25365,
  "glaciers": 21193,
  "encounter": 8087,
  "superman": 10646,
  "．": 1991,
  "leaped": 16900,
  "savior": 24859,
  "severn": 24753,
  "christine": 10941,
  "palaces": 22763,
  "lyric": 13677,
  "wreath": 29586,
  "##¡": 29644,
  "sufi": 21845,
  "parallel": 5903,
  "bertha": 25079,
  "badminton": 14618,
  "##ᴬ": 30026,
  "14th": 6400,
  "newborn": 20662,
  "ross": 5811,
  "archaeologist": 18821,
  "##ruff": 26919,
  "##izer": 17629,
  "squad": 4686,
  "demi": 27668,
  "referencing": 28789,
  "spaced": 19835,
  "aziz": 21196,
  "carpenter": 10533,
  "liter": 23675,
  "李": 1877,
  "gospels": 24131,
  "[unused898]": 903,
  "troop": 10123,
  "downloads": 22956,
  "panther": 15133,
  "effortlessly": 29483,
  "blew": 8682,
  "##leen": 24129,
  "‚": 1522,
  "[unused257]": 262,
  "swords": 10689,
  "prisoner": 7267,
  "inhabited": 9613,
  "illustrating": 28252,
  "due": 2349,
  "sends": 10255,
  "mondays": 28401,
  "raf": 7148,
  "pre": 3653,
  "bedrooms": 18390,
  "sociologist": 25106,
  "blush": 16688,
  "continually": 14678,
  "accordance": 10388,
  "continuously": 10843,
  "gripped": 9672,
  "substantial": 6937,
  "proportional": 14267,
  "##partisan": 26053,
  "##ος": 15297,
  "typical": 5171,
  "functioned": 20903,
  "unavailable": 20165,
  "attend": 5463,
  "##iens": 24836,
  "pia": 24624,
  "quebec": 5447,
  "sweeney": 21178,
  "##nikov": 22576,
  "escape": 4019,
  "palette": 27396,
  "cold": 3147,
  "dune": 21643,
  "surge": 12058,
  "candidates": 5347,
  "##uil": 19231,
  "##laise": 25122,
  "plains": 8575,
  "concordia": 24982,
  "lombardy": 27728,
  "describing": 7851,
  "spacecraft": 12076,
  "whitman": 21311,
  "kinetic": 20504,
  "tyres": 24656,
  "bulb": 20581,
  "connecticut": 6117,
  "dependent": 7790,
  "##vale": 17479,
  "[unused791]": 796,
  "hyundai": 25983,
  "[unused757]": 762,
  "##tic": 4588,
  "##ride": 15637,
  "##beck": 12750,
  "mansions": 26842,
  "##rasia": 27839,
  "wildcats": 19495,
  "astronomical": 13674,
  "dye": 18554,
  "jocelyn": 23786,
  "chatter": 24691,
  "encounters": 11340,
  "tying": 15233,
  "vain": 15784,
  "dresser": 16641,
  "uptown": 28539,
  "baked": 17776,
  "psyche": 25774,
  "abdominal": 21419,
  "enchanted": 22454,
  "panama": 8515,
  "cb": 17324,
  "##פ": 29807,
  "crawley": 28854,
  "pow": 23776,
  "ছ": 1357,
  "instead": 2612,
  "judgment": 8689,
  "barbarian": 25075,
  "separated": 5459,
  "calais": 23116,
  "incapable": 19907,
  "##oder": 27381,
  "females": 3801,
  "detainees": 26485,
  "ก": 1409,
  "bastards": 21123,
  "sculptor": 10160,
  "moons": 23377,
  "til": 18681,
  "quiz": 19461,
  "yacht": 12187,
  "undertake": 16617,
  "უ": 1454,
  "feeding": 8521,
  "##16": 16048,
  "##gram": 13113,
  "kill": 3102,
  "exiting": 22371,
  "1771": 20708,
  "grass": 5568,
  "potential": 4022,
  "molina": 25601,
  "battleship": 17224,
  "defective": 28829,
  "cannes": 14775,
  "send": 4604,
  "fairies": 20182,
  "##dran": 24914,
  "stained": 9702,
  "peugeot": 26385,
  "say": 2360,
  "sixties": 22651,
  "lucan": 20764,
  "##ck": 3600,
  "richard": 2957,
  "##around": 24490,
  "finally": 2633,
  "pleas": 22512,
  "##oteric": 29112,
  "friars": 24037,
  "##bry": 25731,
  "##ʲ": 29707,
  "boulevard": 8459,
  "amazement": 21606,
  "capacity": 3977,
  "golfer": 20601,
  "unlike": 4406,
  "prescott": 20719,
  "blocked": 8534,
  "##boy": 11097,
  "timeline": 17060,
  "carr": 12385,
  "hairy": 15892,
  "home": 2188,
  "sections": 5433,
  "[unused580]": 585,
  "unique": 4310,
  "[unused606]": 611,
  "accuracy": 10640,
  "–": 1516,
  "dissolution": 12275,
  "##wari": 20031,
  "ferns": 25715,
  "export": 9167,
  "wounded": 5303,
  "bottoms": 24196,
  "fiance": 19154,
  "draining": 19689,
  "ա": 1219,
  "weimar": 20695,
  "studio": 2996,
  "##ᵈ": 30034,
  "anymore": 4902,
  "##zow": 22670,
  "hellenistic": 27464,
  "##zily": 28431,
  "caf": 24689,
  "centrally": 25497,
  "林": 1881,
  "[unused902]": 907,
  "##als": 9777,
  "somerset": 9198,
  "anytime": 15933,
  "hilly": 22800,
  "townships": 13991,
  "##eron": 26534,
  "##金": 30490,
  "##ʳ": 29708,
  "[unused825]": 830,
  "habitat": 6552,
  "bowing": 26690,
  "hugo": 9395,
  "leaflets": 27306,
  "ghosts": 11277,
  "protest": 6186,
  "[unused179]": 184,
  "allocation": 16169,
  "[unused608]": 613,
  "mine": 3067,
  "30": 2382,
  "laced": 17958,
  "[unused187]": 192,
  "##tick": 26348,
  "sellers": 19041,
  "prints": 11204,
  "moved": 2333,
  "betray": 20895,
  "roses": 10529,
  "70s": 17549,
  "##神": 30451,
  "snyder": 17840,
  "1807": 13206,
  "westward": 15165,
  "##erry": 19826,
  "botswana": 19414,
  "forestry": 13116,
  "jeffrey": 10799,
  "furrowed": 20555,
  "hurdles": 18608,
  "augusto": 29085,
  "isolated": 7275,
  "kelsey": 21004,
  "coast": 3023,
  "possibly": 4298,
  "sylvester": 20016,
  "tropical": 5133,
  "splashed": 22055,
  "182": 17691,
  "punk": 7196,
  "[unused773]": 778,
  "##oides": 25064,
  "lindsey": 17518,
  "lego": 23853,
  "ي": 1300,
  "meek": 28997,
  "kato": 27496,
  "##gating": 16961,
  "brave": 9191,
  "safer": 13726,
  "##king": 6834,
  "interview": 4357,
  "posters": 14921,
  "stretches": 14082,
  "anomaly": 28685,
  "remembers": 17749,
  "##ating": 5844,
  "[unused613]": 618,
  "participation": 6577,
  "elton": 19127,
  "caravan": 17184,
  "virtues": 21560,
  "liable": 20090,
  "mayoral": 23578,
  "nikki": 14470,
  "##bler": 16213,
  "1943": 3826,
  "##mounted": 27632,
  "##oft": 15794,
  "nicolas": 9473,
  "##org": 21759,
  "debating": 20767,
  "mba": 15038,
  "%": 1003,
  "##zos": 28370,
  "sant": 15548,
  "1878": 7261,
  "##amen": 27245,
  "grind": 23088,
  "relay": 8846,
  "ill": 5665,
  "climates": 24734,
  "ambitious": 12479,
  "exchanges": 15800,
  "epsilon": 28038,
  "##vey": 12417,
  "##yt": 22123,
  "acclaimed": 10251,
  "車": 1954,
  "canine": 28735,
  "blake": 6511,
  "desert": 5532,
  "heating": 10808,
  "implementing": 14972,
  "routledge": 21180,
  "##pani": 26569,
  "thugs": 24106,
  "collected": 5067,
  "া": 1378,
  "##apple": 23804,
  "1947": 4006,
  "##onga": 26356,
  "drum": 6943,
  "stevens": 8799,
  "##18": 15136,
  "excluding": 13343,
  "groups": 2967,
  "trojan": 23445,
  "##wire": 20357,
  "##ᵗ": 30041,
  "orders": 4449,
  "watershed": 12547,
  "feedback": 12247,
  "condemnation": 26248,
  "hezbollah": 25713,
  "1950": 3925,
  "##葉": 30469,
  "agrarian": 23226,
  "[unused873]": 878,
  "assassin": 12025,
  "##cu": 10841,
  "predictable": 21425,
  "##hner": 28989,
  "playground": 14705,
  "beautiful": 3376,
  "stats": 26319,
  "charlemagne": 27257,
  "randall": 12813,
  "administrations": 27722,
  "1730": 23272,
  "soothe": 28384,
  "any": 2151,
  "80s": 16002,
  "catalonia": 16711,
  "sighting": 29426,
  "ricky": 11184,
  "##■": 30144,
  "volvo": 21074,
  "ও": 1352,
  "injury": 4544,
  "jamestown": 27435,
  "investigated": 10847,
  "tonight": 3892,
  "thoughtfully": 19897,
  "ᵈ": 1498,
  "##cured": 19405,
  "georgina": 27358,
  "##heim": 8049,
  "η": 1161,
  "patted": 11930,
  "##$": 29615,
  "renowned": 8228,
  "##flies": 24019,
  "higher": 3020,
  "lobe": 21833,
  "simon": 4079,
  "1824": 11617,
  "##ψ": 29738,
  "john": 2198,
  "##filtration": 28674,
  "##囗": 30323,
  "specialists": 15744,
  "shrine": 9571,
  "wires": 14666,
  "ス": 1707,
  "issuing": 15089,
  "initials": 20381,
  "overlooked": 17092,
  "139": 16621,
  "electorate": 13694,
  "##onne": 18256,
  "[unused250]": 255,
  "ciudad": 20759,
  "bumped": 19030,
  "plant": 3269,
  "positioning": 19120,
  "butler": 7055,
  "manufacturer": 7751,
  "rao": 10546,
  "bei": 21388,
  "student": 3076,
  "macon": 20025,
  "structures": 5090,
  "bared": 23485,
  "distributors": 22495,
  "nay": 29349,
  "ramon": 12716,
  "commanders": 11437,
  "##氵": 30420,
  "rock": 2600,
  "[unused739]": 744,
  "207": 19843,
  "amp": 23713,
  "##メ": 30252,
  "reconstruction": 8735,
  "consultation": 16053,
  "sharma": 14654,
  "investors": 9387,
  "##vision": 17084,
  "husband": 3129,
  "connect": 7532,
  "surgeons": 16804,
  "impaired": 18234,
  "traveller": 21916,
  "clinch": 29119,
  "ན": 1429,
  "我": 1855,
  "messing": 22308,
  "belarus": 12545,
  "symmetrical": 23476,
  "marriott": 26490,
  "digitally": 18397,
  "noah": 7240,
  "[unused478]": 483,
  "dun": 24654,
  "phonetic": 26664,
  "card": 4003,
  "sioux": 16615,
  "政": 1860,
  "mound": 12048,
  "1611": 28769,
  "als": 25520,
  "patting": 26085,
  "font": 15489,
  "molten": 23548,
  "freeing": 22198,
  "[unused171]": 176,
  "interpreting": 25455,
  "##ette": 7585,
  "1692": 28622,
  "unidentified": 20293,
  "antonia": 24272,
  "##chy": 11714,
  "better": 2488,
  "amateur": 5515,
  "wings": 4777,
  "voices": 5755,
  "assurance": 16375,
  "materials": 4475,
  "##abas": 27537,
  "creatures": 7329,
  "[unused523]": 528,
  "upstate": 29530,
  "reel": 15934,
  "corpses": 18113,
  "minus": 15718,
  "shale": 18488,
  "urgent": 13661,
  "##quet": 12647,
  "classroom": 9823,
  "vertigo": 28246,
  "[unused883]": 888,
  "cutler": 24975,
  "seals": 13945,
  "dickson": 22076,
  "##wr": 13088,
  "eyelids": 16544,
  "sole": 7082,
  "byte": 24880,
  "estimates": 10035,
  "fidelity": 22625,
  "freddie": 15528,
  "##far": 14971,
  "euro": 9944,
  "cookies": 16324,
  "cassidy": 13737,
  "requests": 11186,
  "lifetime": 6480,
  "haven": 4033,
  "##ski": 5488,
  "√": 1600,
  "conditioning": 14372,
  "vaughan": 14461,
  "rub": 14548,
  "staggering": 26233,
  "squadrons": 11435,
  "名": 1795,
  "##eborg": 27614,
  "barr": 19820,
  "surveying": 19654,
  "coveted": 28821,
  "##dini": 26039,
  "closer": 3553,
  "uncertainty": 12503,
  "granite": 9753,
  "reich": 14365,
  "gujarat": 14288,
  "glazed": 19724,
  "[unused807]": 812,
  "unsuitable": 25622,
  "darted": 14051,
  "te": 8915,
  "seeking": 6224,
  "repetition": 23318,
  "expect": 5987,
  "banning": 21029,
  "turk": 22883,
  "legally": 10142,
  "declaration": 8170,
  "claudio": 19569,
  "allegiance": 14588,
  "debated": 15268,
  "wartime": 12498,
  "overtook": 28920,
  "pilgrim": 21214,
  "guides": 12468,
  "performance": 2836,
  "##ས": 29972,
  "comes": 3310,
  "##fo": 14876,
  "starter": 11753,
  "##lit": 15909,
  "depends": 9041,
  "publicized": 24928,
  "sales": 4341,
  "navarre": 21260,
  "##ʌ": 29700,
  "##ange": 22043,
  "specification": 12827,
  "depart": 18280,
  "photographic": 12416,
  "##tos": 13122,
  "putin": 22072,
  "belgium": 5706,
  "sincerely": 25664,
  "mcguire": 23872,
  "bishop": 3387,
  "bench": 6847,
  "38": 4229,
  "vest": 17447,
  "fibre": 20962,
  "speeding": 21485,
  "immensely": 24256,
  "slamming": 15209,
  "kilometers": 7338,
  "##ke": 3489,
  "outta": 24955,
  "##rzburg": 29136,
  "古": 1789,
  "hove": 25215,
  "tenderly": 26596,
  "##ractive": 26884,
  "mitsubishi": 19695,
  "co": 2522,
  "formidable": 18085,
  "scenery": 17363,
  "spiritual": 6259,
  "admit": 6449,
  "instability": 18549,
  "burlington": 15552,
  "craving": 26369,
  "lesser": 8276,
  "dart": 14957,
  "preventing": 10723,
  "1827": 12309,
  "##ignant": 25593,
  "##gel": 12439,
  "ring": 3614,
  "waited": 4741,
  "ⱼ": 1631,
  "soothing": 16684,
  "third": 2353,
  "##oy": 6977,
  "gunnar": 26138,
  "ᄉ": 1461,
  "##oun": 23709,
  "proves": 16481,
  "rex": 10151,
  "symbol": 6454,
  "##raph": 24342,
  "bladder": 24176,
  "stanisław": 26133,
  "##ization": 3989,
  "##section": 29015,
  "[unused618]": 623,
  "astronomers": 26357,
  "##claim": 25154,
  "##xy": 18037,
  "##bid": 17062,
  "service": 2326,
  "aiming": 13659,
  "##ᅩ": 30011,
  "slightly": 3621,
  "incoming": 14932,
  "[unused220]": 225,
  "##cheon": 28099,
  "lia": 22393,
  "overheard": 20443,
  "##nz": 14191,
  "[unused635]": 640,
  "elephant": 10777,
  "grief": 9940,
  "wand": 23967,
  "securing": 12329,
  "dhabi": 23153,
  "pine": 7222,
  "gaza": 14474,
  "##kic": 29493,
  "60": 3438,
  "pace": 6393,
  "booklet": 19271,
  "horde": 21038,
  "motorway": 13119,
  "restaurant": 4825,
  "migratory": 22262,
  "passes": 5235,
  "ideally": 28946,
  "##jong": 21958,
  "##ful": 3993,
  "incarnation": 15715,
  "prostitutes": 20833,
  "heirs": 15891,
  "farewell": 13407,
  "rallies": 22867,
  "cmll": 25395,
  "comeback": 12845,
  "##rank": 26763,
  "restraining": 28285,
  "60s": 20341,
  "diversion": 20150,
  "expeditionary": 15372,
  "##ط": 29828,
  "1983": 3172,
  "substituted": 17316,
  "mathematician": 13235,
  "switches": 15924,
  "##mi": 4328,
  "east": 2264,
  "facilities": 4128,
  "cipher": 27715,
  "boris": 11235,
  "ways": 3971,
  "broke": 3631,
  "##zed": 5422,
  "##zer": 6290,
  "religions": 11822,
  "enable": 9585,
  "institut": 17126,
  "himself": 2370,
  "74": 6356,
  "##г": 29741,
  "significantly": 6022,
  "continues": 4247,
  "〜": 1645,
  "##ora": 6525,
  "rusty": 13174,
  "proponent": 22488,
  "implying": 20242,
  "##ᵇ": 30033,
  "contestants": 10584,
  "mann": 10856,
  "bride": 8959,
  "astoria": 29285,
  "[unused42]": 43,
  "frog": 10729,
  "[unused863]": 868,
  "graves": 9729,
  "##pher": 27921,
  "monroe": 9747,
  "##scoe": 28147,
  "##cellular": 16882,
  "jj": 29017,
  "ᵐ": 1502,
  "werewolves": 18306,
  "##corp": 24586,
  "robertson": 9923,
  "cheer": 15138,
  "posse": 25751,
  "uncle": 4470,
  "1853": 8933,
  "ふ": 1674,
  "nationalism": 14594,
  "backup": 10200,
  "studios": 4835,
  "reds": 12281,
  "exploration": 8993,
  "didn": 2134,
  "lookout": 19052,
  "[unused40]": 41,
  "interrupted": 7153,
  "##rated": 9250,
  "twins": 8178,
  "grover": 25242,
  "plotting": 20699,
  "algiers": 22947,
  "cambridgeshire": 24197,
  "nmi": 22484,
  "provincial": 4992,
  "maggie": 8538,
  "ryan": 4575,
  "##nett": 15361,
  "appealed": 12068,
  "tobias": 16858,
  "others": 2500,
  "actively": 8851,
  "identity": 4767,
  "constraints": 14679,
  "startling": 19828,
  "##pic": 24330,
  "slim": 11754,
  "took": 2165,
  "lieu": 22470,
  "edward": 3487,
  "om": 18168,
  "##miya": 29312,
  "facto": 13743,
  "recess": 28290,
  "##chaft": 29043,
  "athlete": 8258,
  "engravings": 28611,
  "rarely": 6524,
  "rulers": 11117,
  "spp": 26924,
  "atom": 13787,
  "songwriting": 14029,
  "##კ": 29982,
  "##rim": 20026,
  "reiterated": 28960,
  "oppression": 20489,
  "reigns": 23481,
  "dolphins": 13600,
  "syndication": 26973,
  "versatile": 22979,
  "miranda": 9392,
  "forecast": 19939,
  "##nium": 14907,
  "wait": 3524,
  "integrate": 17409,
  "frances": 10360,
  "##iary": 17302,
  "capt": 14408,
  "fletcher": 10589,
  "headquartered": 9403,
  "heartbreak": 27724,
  "chassis": 11832,
  "pier": 10356,
  "his": 2010,
  "ethnicity": 18240,
  "##מ": 29801,
  "##tier": 17579,
  "ali": 4862,
  "appropriate": 6413,
  "jeremiah": 17526,
  "intersects": 17349,
  "logging": 15899,
  "leaves": 3727,
  "##lewood": 26580,
  "invisible": 8841,
  "94": 6365,
  "##pone": 29513,
  "##ets": 8454,
  "linear": 7399,
  "companies": 3316,
  "substrate": 16305,
  "emile": 17127,
  "##王": 30435,
  "consequences": 8465,
  "tangle": 24453,
  "landscape": 5957,
  "nadu": 10703,
  "##ᆷ": 30023,
  "feminism": 20050,
  "cruz": 8096,
  "indonesian": 9003,
  "limited": 3132,
  "fritz": 12880,
  "subsequent": 4745,
  "##mise": 28732,
  "voting": 6830,
  "sleeper": 24372,
  "##ryn": 18143,
  "shop": 4497,
  "afar": 28978,
  "sabha": 11200,
  "foreign": 3097,
  "designated": 4351,
  "##lis": 6856,
  "summon": 18654,
  "blunt": 14969,
  "##morphic": 18078,
  "##enna": 24397,
  "choking": 18329,
  "structure": 3252,
  "complaints": 10821,
  "##chi": 5428,
  "toilet": 11848,
  "impacts": 14670,
  "erica": 19295,
  "preceded": 11677,
  "unionist": 17104,
  "[unused683]": 688,
  "verb": 12034,
  "buckingham": 17836,
  "沢": 1898,
  "japan": 2900,
  "wrestled": 20615,
  "velvet": 10966,
  "regarded": 5240,
  "chamber": 4574,
  "drugs": 5850,
  "connolly": 21018,
  "designers": 11216,
  "bikini": 20345,
  "##khan": 26370,
  "democrats": 8037,
  "governments": 6867,
  "instrumental": 6150,
  "spat": 14690,
  "foil": 17910,
  "while": 2096,
  "glasgow": 6785,
  "##encia": 27742,
  "[unused131]": 136,
  "piles": 18526,
  "natural": 3019,
  "feldman": 26908,
  "band": 2316,
  "ultrasound": 27312,
  "##ened": 6675,
  "aaa": 13360,
  "charters": 23010,
  "1813": 12169,
  "slicing": 26514,
  "##tment": 21181,
  "soto": 22768,
  "₈": 1555,
  "thrive": 25220,
  "fate": 6580,
  "lauded": 26507,
  "hue": 20639,
  "##bbon": 27684,
  "motorcycle": 9055,
  "scattering": 17501,
  "widowed": 22874,
  "stabilize": 27790,
  "##growth": 26982,
  "punching": 19477,
  "seminar": 18014,
  "vendor": 21431,
  "horned": 26808,
  "energies": 19320,
  "schemes": 11683,
  "usage": 8192,
  "fugitive": 21329,
  "aqueduct": 24016,
  "differential": 11658,
  "fourteenth": 15276,
  "##ɫ": 29686,
  "prosperous": 18241,
  "##iface": 29164,
  "memorandum": 20336,
  "subgroup": 20576,
  "##ulo": 18845,
  "##ₘ": 30096,
  "voluntarily": 17912,
  "brasil": 21133,
  "magnetic": 8060,
  "lennox": 21060,
  "cancer": 4456,
  "approve": 14300,
  "spencer": 7084,
  "harassed": 28186,
  "neighbourhood": 10971,
  "lisa": 7059,
  "##信": 30293,
  "juice": 10869,
  "##logie": 27095,
  "conrad": 10931,
  "reports": 4311,
  "interviewing": 27805,
  "slap": 14308,
  "transmitter": 11659,
  "exposing": 14944,
  "##प": 29864,
  "honours": 8762,
  "grouped": 15131,
  "sparked": 13977,
  "##osity": 25949,
  "singh": 5960,
  "[unused944]": 949,
  "asthma": 26180,
  "rustling": 29188,
  "wesley": 11482,
  "##furt": 24428,
  "##iz": 10993,
  "目": 1918,
  "compete": 5566,
  "june": 2238,
  "railway": 2737,
  "dispatch": 18365,
  "shaken": 16697,
  "鈴": 1965,
  "秀": 1928,
  "430": 19540,
  "##omic": 22026,
  "seductive": 23182,
  "janata": 20308,
  "##ettes": 26592,
  "breaking": 4911,
  "commonplace": 27550,
  "papa": 13008,
  "##tch": 10649,
  "temptation": 17232,
  "interiors": 20769,
  "[unused958]": 963,
  "malik": 14360,
  "##ha": 3270,
  "proportion": 10817,
  "7th": 5504,
  "##ac": 6305,
  "reggie": 17963,
  "nsw": 11524,
  "whites": 12461,
  "carbon": 6351,
  "specialised": 17009,
  "vine": 15351,
  "##nstein": 15493,
  "##typical": 27086,
  "shrubs": 18812,
  "##tian": 10772,
  "volleyball": 7454,
  "##aceae": 18339,
  "disrupted": 20275,
  "operators": 9224,
  "##þ": 29670,
  "overdose": 26641,
  "executives": 12706,
  "threatens": 17016,
  "smirk": 15081,
  "successively": 24288,
  "embarrassed": 10339,
  "##hia": 12995,
  "149": 17332,
  "##sham": 21010,
  "parts": 3033,
  "accessories": 16611,
  "embarked": 11299,
  "christianity": 7988,
  "parker": 6262,
  "kaye": 23686,
  "valor": 27314,
  "glint": 25263,
  "godfather": 23834,
  "1970s": 3955,
  "steward": 17946,
  "##and": 5685,
  "painter": 5276,
  "incline": 27461,
  "##κ": 29726,
  "derrick": 18928,
  "force": 2486,
  "emails": 22028,
  "accidents": 13436,
  "writ": 25697,
  "weakness": 11251,
  "##tal": 9080,
  "nouvelle": 25207,
  "bourne": 15803,
  "islamist": 27256,
  "galilee": 28928,
  "adobe": 18106,
  "dignity": 13372,
  "##icated": 17872,
  "1797": 14112,
  "##rip": 29443,
  "travel": 3604,
  "wolfgang": 13865,
  "surfaced": 15791,
  "patient": 5776,
  "quartz": 20971,
  "petit": 17268,
  "##tein": 9589,
  "ones": 3924,
  "[unused975]": 980,
  "##ivist": 21997,
  "boxed": 27554,
  "##hore": 16892,
  "blurted": 18751,
  "##dion": 29573,
  "mile": 3542,
  "##zziness": 29212,
  "rbi": 16929,
  "biased": 25352,
  "planner": 24555,
  "infrared": 14611,
  "siren": 19558,
  "descendant": 12608,
  "tan": 9092,
  "dropping": 7510,
  "reassure": 24647,
  "community": 2451,
  "dictator": 21237,
  "simplicity": 17839,
  "brush": 8248,
  "coca": 16787,
  "cougars": 26317,
  "good": 2204,
  "token": 19204,
  "##chenko": 25872,
  "##nist": 26942,
  "haunting": 20161,
  "ъ": 1205,
  "spire": 19823,
  "meadow": 13244,
  "##ml": 19968,
  "abstracts": 29474,
  "ballad": 11571,
  "facing": 5307,
  "##lver": 26229,
  "##15": 16068,
  "##ʋ": 29699,
  "newman": 10625,
  "##ut": 4904,
  "accommodated": 28959,
  "crotch": 28629,
  "werewolf": 12797,
  "perry": 6890,
  "龸": 1983,
  "[unused186]": 191,
  "##家": 30351,
  "email": 10373,
  "reconnaissance": 8967,
  "bane": 25163,
  "halloween": 14414,
  "##fied": 10451,
  "##berries": 20968,
  "liar": 16374,
  "##so": 6499,
  "signature": 8085,
  "glided": 26936,
  "caressed": 21473,
  "##kson": 26579,
  "carmen": 11425,
  "slowing": 18068,
  "eighth": 5964,
  "mosque": 8806,
  "dioxide": 14384,
  "##ak": 4817,
  "1996": 2727,
  "vhs": 17550,
  "printer": 15041,
  "extracts": 27059,
  "onstage": 23542,
  "neglected": 15486,
  "cunningham": 13652,
  "moshe": 27123,
  "parcels": 28998,
  "robert": 2728,
  "grandfather": 5615,
  "mason": 6701,
  "economist": 11708,
  "bombay": 11831,
  "ai": 9932,
  "presumably": 10712,
  "colon": 16844,
  "ᴬ": 1490,
  "##民": 30418,
  "announcement": 8874,
  "detecting": 25952,
  "##ய": 29926,
  "marquis": 13410,
  "kassel": 27884,
  "reflection": 9185,
  "##pia": 19312,
  "##nya": 17238,
  "trois": 25527,
  "junta": 22450,
  "paralympic": 17029,
  "shirley": 11280,
  "282": 26267,
  "thrill": 16959,
  "taylor": 4202,
  "stabilized": 27697,
  "destruction": 6215,
  "political": 2576,
  "1966": 3547,
  "groaned": 9655,
  "jesuit": 13840,
  "[unused449]": 454,
  "##ndon": 19333,
  "toxin": 29090,
  "##kiewicz": 28563,
  "society": 2554,
  "##obe": 20891,
  "reward": 10377,
  "trieste": 25199,
  "##ab": 7875,
  "recover": 8980,
  "mouthed": 20521,
  "henan": 27837,
  "drunk": 7144,
  "sans": 20344,
  "##nall": 22270,
  "institutes": 12769,
  "##tf": 24475,
  "##dur": 24979,
  "##terol": 27833,
  "##agawa": 20812,
  "blowing": 11221,
  "il": 6335,
  "##lean": 20898,
  "ducks": 14875,
  "voted": 5444,
  "pickup": 15373,
  "engineer": 3992,
  "保": 1766,
  "hostility": 18258,
  "##ngo": 16656,
  "unlock": 19829,
  "tq": 28816,
  "humanitarian": 11470,
  "comedy": 4038,
  "success": 3112,
  "counties": 5721,
  "##lings": 11227,
  "##`": 29639,
  "##urer": 27595,
  "thriller": 10874,
  "sulfate": 26754,
  "##tang": 26067,
  "##deck": 26547,
  "##mbe": 18552,
  "geoff": 14915,
  "##som": 25426,
  "า": 1422,
  "##ttered": 14795,
  "many": 2116,
  "mage": 17454,
  "utopia": 26425,
  "ro": 20996,
  "predatory": 21659,
  "orbit": 8753,
  "orb": 19607,
  "immunity": 15403,
  "vegetable": 15415,
  "mackay": 17090,
  "raiders": 10642,
  "##right": 15950,
  "gavin": 9448,
  "##ids": 9821,
  "allowing": 4352,
  "##merie": 28677,
  "barron": 23594,
  "shortstop": 25359,
  "cornell": 10921,
  "judd": 20128,
  "cyrillic": 15522,
  "sticky": 15875,
  "##∞": 30128,
  "##ente": 15781,
  "[unused482]": 487,
  "task": 4708,
  "reformed": 9114,
  "pork": 15960,
  "polytechnic": 14466,
  "terminating": 23552,
  "arabs": 14560,
  "[unused51]": 52,
  "shielding": 25553,
  "trying": 2667,
  "bunch": 9129,
  "##hur": 24572,
  "##cke": 19869,
  "##ق": 29834,
  "##itors": 27287,
  "[CLS]": 101,
  "car": 2482,
  "maltese": 18563,
  "digital": 3617,
  "purely": 11850,
  "deeply": 6171,
  "##logists": 18738,
  "##oney": 17791,
  "alliance": 4707,
  "[unused720]": 725,
  "เ": 1423,
  "星": 1866,
  "swore": 12860,
  "unsuccessfully": 11551,
  "advisory": 7319,
  "justification": 19777,
  "acquiring": 13868,
  "stainless": 18676,
  "earl": 4656,
  "1712": 28460,
  "##tify": 27351,
  "sins": 15516,
  "holder": 9111,
  "##ll": 3363,
  "framing": 20241,
  "##øy": 27688,
  "consulate": 19972,
  "loosened": 22456,
  "##heard": 26362,
  "assists": 8456,
  "raju": 25098,
  "joked": 19700,
  "megan": 12756,
  "insists": 16818,
  "##ogo": 22844,
  "emergence": 14053,
  "##va": 3567,
  "fiba": 13651,
  "184": 19681,
  "telecommunications": 12108,
  "太": 1812,
  "inactive": 16389,
  "nipples": 28124,
  "bi": 12170,
  "cater": 23488,
  "##uin": 20023,
  "obscured": 23649,
  "##mond": 11442,
  "trademark": 11749,
  "settings": 10906,
  "sank": 7569,
  "most": 2087,
  "murder": 4028,
  "injection": 13341,
  "middlesbrough": 21655,
  "deadly": 9252,
  "goodbye": 9119,
  "installations": 14111,
  "lilly": 14765,
  "タ": 1709,
  "powerful": 3928,
  "##34": 22022,
  "##io": 3695,
  "okay": 3100,
  "dock": 8946,
  "organize": 10939,
  "committee": 2837,
  "民": 1892,
  "clubs": 4184,
  "vanessa": 13226,
  "##bots": 27014,
  "molly": 9618,
  "##olate": 19425,
  "##mas": 9335,
  "quintet": 18109,
  "unbeaten": 20458,
  "381": 29335,
  "outreach": 15641,
  "##river": 24352,
  "faded": 8105,
  "finalized": 23575,
  "museums": 9941,
  "mn": 24098,
  "109": 11518,
  "theresa": 14781,
  "heritage": 4348,
  "flinched": 19201,
  "dynamite": 21719,
  "breakers": 24742,
  "ministries": 16410,
  "debts": 13930,
  "英": 1941,
  "##オ": 30225,
  "gustave": 27973,
  "threaten": 15686,
  "radar": 7217,
  "dialect": 9329,
  "##ibar": 26656,
  "dishes": 10447,
  "ん": 1691,
  "minh": 19538,
  "pilots": 8221,
  "arrogant": 15818,
  "neighbour": 20065,
  "ignore": 8568,
  "kung": 18577,
  "raise": 5333,
  "arbor": 19679,
  "measure": 5468,
  "octave": 21817,
  "heat": 3684,
  "correspond": 17254,
  "infected": 10372,
  "ː": 1150,
  "hannah": 8410,
  "islands": 3470,
  "grapes": 16575,
  "haynes": 21805,
  "ordeal": 23304,
  "cartel": 21680,
  "chen": 8802,
  "assert": 20865,
  "[unused819]": 824,
  "baking": 21522,
  "##ayton": 29319,
  "obsession": 17418,
  "artwork": 8266,
  "being": 2108,
  "riga": 17557,
  "sanjay": 29590,
  "##cade": 21869,
  "##ryl": 23320,
  "monthly": 7058,
  "dennis": 6877,
  "pressures": 15399,
  "ink": 10710,
  "##sman": 11512,
  "←": 1583,
  "hallway": 6797,
  "dt": 26718,
  "cousin": 5542,
  "comrades": 19033,
  "##iman": 18505,
  "##dent": 16454,
  "thames": 11076,
  "given": 2445,
  "app": 10439,
  "addison": 18403,
  "##cate": 16280,
  "row": 5216,
  "##ffe": 16020,
  "staggered": 14648,
  "##ᄑ": 30004,
  "blazers": 28513,
  "च": 1318,
  "sliced": 15920,
  "angelo": 12262,
  "##tz": 5753,
  "##ably": 8231,
  "##rk": 8024,
  "psychologists": 25428,
  "pitt": 15091,
  "vein": 12818,
  "translations": 11913,
  "manifold": 19726,
  "stuck": 5881,
  "##oration": 21223,
  "rise": 4125,
  "royalties": 25335,
  "##lles": 20434,
  "sports": 2998,
  "[unused465]": 470,
  "reworked": 27575,
  "##cies": 9243,
  "x": 1060,
  "##uddin": 17375,
  "authorised": 19256,
  "##rnier": 28484,
  "geologist": 21334,
  "compass": 16681,
  "directors": 5501,
  "740": 25833,
  "aquitaine": 24973,
  "erosion": 14173,
  "spearheaded": 27721,
  "room": 2282,
  "baptist": 7550,
  "##iling": 16281,
  "although": 2348,
  "trance": 16588,
  "highlighted": 11548,
  "hampered": 22532,
  "obeyed": 22665,
  "##riation": 18769,
  "inferior": 14092,
  "statutory": 15201,
  "##∪": 30132,
  "fiber": 11917,
  "##dents": 28986,
  "##dot": 27364,
  "kitty": 14433,
  "trent": 7990,
  "glanced": 3887,
  "##lion": 18964,
  "displaced": 12936,
  "passed": 2979,
  "nasal": 19077,
  "氷": 1895,
  "suggesting": 9104,
  "brushed": 7765,
  "##lva": 22144,
  "gram": 13250,
  "cool": 4658,
  "front": 2392,
  "billed": 14843,
  "##…": 30064,
  "six": 2416,
  "catering": 18640,
  "sensible": 21082,
  "operate": 5452,
  "sykes": 23531,
  "##gut": 27920,
  "alvin": 17348,
  "zac": 29250,
  "baton": 15302,
  "wheat": 10500,
  "floated": 13715,
  "electrode": 28688,
  "evolve": 19852,
  "##ᅲ": 30016,
  "ahl": 18347,
  "splitting": 14541,
  "harp": 14601,
  "2011": 2249,
  "##mple": 23344,
  "accusations": 13519,
  "##lowe": 27663,
  "mk": 12395,
  "emerging": 8361,
  "carrier": 6839,
  "bassist": 9858,
  "information": 2592,
  "songs": 2774,
  "[unused597]": 602,
  "##郎": 30484,
  "slalom": 19617,
  "irrigation": 12442,
  "grand": 2882,
  "petitioned": 22527,
  "##fen": 18940,
  "contributed": 5201,
  "scanning": 13722,
  "winger": 16072,
  "anderson": 5143,
  "available": 2800,
  "taut": 21642,
  "associations": 8924,
  "rural": 3541,
  "solos": 24339,
  "fluttered": 18360,
  "##β": 29720,
  "prejudice": 18024,
  "pure": 5760,
  "anchor": 8133,
  "summers": 10945,
  "##estra": 26199,
  "[unused408]": 413,
  "longitude": 20413,
  "hancock": 13849,
  "anatomical": 28141,
  "chilean": 12091,
  "##lham": 25968,
  "³": 1083,
  "ribs": 10335,
  "##bread": 27035,
  "306": 24622,
  "washed": 8871,
  "##uted": 12926,
  "arabic": 5640,
  "##ulator": 20350,
  "hansen": 13328,
  "stereo": 12991,
  "evidence": 3350,
  "potentially": 9280,
  "214": 19936,
  "negatively": 19762,
  "tours": 7562,
  "give": 2507,
  "##bham": 25522,
  "enrico": 21982,
  "xiv": 15939,
  "##tious": 20771,
  "invitations": 29492,
  "layers": 9014,
  "ant": 14405,
  ">": 1028,
  "mastering": 11495,
  "1656": 28434,
  "bellevue": 26756,
  "50th": 12951,
  "##sis": 6190,
  "ט": 1249,
  "尚": 1830,
  "##phus": 25255,
  "##ellant": 24178,
  "raining": 24057,
  "intentionally": 15734,
  "parisian": 24262,
  "##dman": 21804,
  "##ias": 7951,
  "ra": 10958,
  "outlook": 17680,
  "##cans": 26642,
  "##pl": 24759,
  "recoil": 27429,
  "[unused667]": 672,
  "##iness": 9961,
  "henson": 27227,
  "stairs": 5108,
  "froze": 10619,
  "発": 1914,
  "kimberley": 25004,
  "landowners": 20152,
  "salary": 10300,
  "dimly": 25361,
  "patsy": 25382,
  "##‚": 30057,
  "ambiguity": 27637,
  "about": 2055,
  "increase": 3623,
  "colors": 6087,
  "perceive": 23084,
  "[unused139]": 144,
  "610": 19827,
  "↦": 1588,
  "paranoia": 27890,
  "intervention": 8830,
  "nowadays": 13367,
  "asha": 24595,
  "永": 1896,
  "##puram": 17809,
  "shared": 4207,
  "carnegie": 11298,
  "sprayed": 25401,
  "barrie": 24953,
  "rest": 2717,
  "istanbul": 9960,
  "minogue": 27736,
  "amalgamation": 21968,
  "[unused698]": 703,
  "uncles": 27328,
  "ingrid": 22093,
  "##mme": 20058,
  "capitol": 9424,
  "blackpool": 17444,
  "exodus": 16388,
  "##ntal": 15758,
  "##ur": 3126,
  "equivalence": 27841,
  "superseded": 19886,
  "1819": 12552,
  "sack": 12803,
  "##ul": 5313,
  "##rg": 10623,
  "latvia": 12429,
  "genealogy": 26684,
  "compares": 22963,
  "##chel": 15721,
  "[unused358]": 363,
  "##een": 12129,
  "barnsley": 25139,
  "sera": 26358,
  "[unused45]": 46,
  "spices": 21729,
  "joe": 3533,
  "preserve": 7969,
  "crushing": 14527,
  "intuitive": 29202,
  "[unused334]": 339,
  "1981": 3261,
  "teachings": 12209,
  "fishing": 5645,
  "mixing": 6809,
  "##war": 9028,
  "champ": 24782,
  "restless": 15035,
  "camilla": 26902,
  "theories": 8106,
  "sermons": 20855,
  "stunning": 14726,
  "montgomery": 8482,
  "indigo": 22472,
  "1839": 10011,
  "alpine": 10348,
  "carlton": 12989,
  "gilles": 21717,
  "1931": 4739,
  "iran": 4238,
  "##mer": 5017,
  "shallow": 8467,
  "angels": 7048,
  "smackdown": 22120,
  "vicar": 12340,
  "underneath": 7650,
  "enemies": 6716,
  "##ox": 11636,
  "##›": 30068,
  "##»": 29663,
  "td": 14595,
  "wholesale": 17264,
  "kat": 10645,
  "achievement": 6344,
  "note": 3602,
  "tract": 12859,
  "##sta": 9153,
  "##宇": 30345,
  "offering": 5378,
  "coded": 22402,
  "##bol": 14956,
  "##icate": 24695,
  "##gin": 11528,
  "olympic": 4386,
  "result": 2765,
  "suffering": 6114,
  "rower": 21984,
  "་": 1424,
  "researchers": 6950,
  "mobility": 12969,
  "malcolm": 8861,
  "vincenzo": 24712,
  "positively": 13567,
  "##成": 30380,
  "##bib": 28065,
  "conserve": 27749,
  "##wind": 11101,
  "adviser": 11747,
  "populated": 10357,
  "beijing": 7211,
  "stop": 2644,
  "ward": 4829,
  "steaming": 19986,
  "suck": 11891,
  "###": 29614,
  "plug": 13354,
  "thorough": 16030,
  "warner": 6654,
  "##long": 10052,
  "##hor": 16368,
  "para": 11498,
  "specials": 19247,
  "behaviors": 15592,
  "least": 2560,
  "antigen": 28873,
  "##rage": 24449,
  "[unused677]": 682,
  "hollow": 8892,
  "disappearance": 13406,
  "boilers": 20412,
  "scored": 3195,
  "overcame": 26463,
  "morals": 25288,
  "1857": 8204,
  "really": 2428,
  "communion": 15661,
  "3a": 23842,
  "##hered": 27190,
  "validation": 27354,
  "automatically": 8073,
  "enzymes": 16285,
  "pagoda": 27387,
  "##pace": 15327,
  "##ւ": 29785,
  "leiden": 20329,
  "clothing": 5929,
  "##arable": 25236,
  "inspired": 4427,
  "voters": 7206,
  "quarries": 27069,
  "##lle": 6216,
  "[unused476]": 481,
  "mccartney": 15320,
  "economics": 5543,
  "ulrich": 19619,
  "##paper": 23298,
  "sichuan": 20980,
  "tatiana": 22725,
  "shooters": 28310,
  "herbs": 17561,
  "##oco": 24163,
  "##wen": 12449,
  "depict": 17120,
  "gorgeous": 9882,
  "hymn": 14825,
  "##л": 29436,
  "compounds": 10099,
  "distant": 6802,
  "refurbished": 18662,
  "beings": 9552,
  "‿": 1534,
  "synthesized": 23572,
  "example": 2742,
  "phillies": 15711,
  "unusually": 12890,
  "fundraiser": 28536,
  "ɲ": 1123,
  "##world": 11108,
  "certainly": 5121,
  "rack": 14513,
  "did": 2106,
  "##lf": 10270,
  "##met": 11368,
  "##ה": 29128,
  "evade": 26399,
  "herbal": 27849,
  "masters": 5972,
  "julie": 7628,
  "comprise": 15821,
  "reservoirs": 22535,
  "destroys": 20735,
  "ホ": 1722,
  "regulations": 7040,
  "greater": 3618,
  "white": 2317,
  "confessed": 14312,
  "league": 2223,
  "bergman": 24544,
  "anti": 3424,
  "terms": 3408,
  "1904": 5692,
  "##ios": 10735,
  "##tical": 14656,
  "mor": 22822,
  "luciano": 24512,
  "permit": 9146,
  "##owski": 15249,
  "professorship": 22661,
  "pandit": 29331,
  "buff": 23176,
  "1754": 22593,
  "converted": 4991,
  "1963": 3699,
  "aurora": 13158,
  "steered": 23424,
  "lash": 25210,
  "##弘": 30369,
  "tables": 7251,
  "fantasy": 5913,
  "1784": 16496,
  "advisor": 8619,
  "lie": 4682,
  "mont": 18318,
  "seeker": 29444,
  "unknown": 4242,
  "screwing": 29082,
  "abilities": 7590,
  "vodka": 21092,
  "sgt": 17001,
  "underwood": 22751,
  "thompson": 5953,
  "minorities": 14302,
  "gum": 16031,
  "searching": 6575,
  "undertaker": 27568,
  "[unused100]": 105,
  "[unused558]": 563,
  "boating": 23639,
  "[unused291]": 296,
  "cavalry": 5945,
  "gods": 5932,
  "##mont": 9629,
  "nottingham": 11331,
  "adored": 28456,
  "hectares": 9076,
  "mccarthy": 12584,
  "##stra": 20528,
  "opposing": 10078,
  "tapestry": 25213,
  "##4": 2549,
  "maternal": 11062,
  "loser": 10916,
  "##elles": 22869,
  "ku": 13970,
  "##graph": 14413,
  "documentaries": 15693,
  "affiliation": 12912,
  "[unused530]": 535,
  "##〜": 30171,
  "gary": 5639,
  "pub": 9047,
  "terrified": 10215,
  "afterward": 9707,
  "##taro": 28160,
  "##bach": 7693,
  "juliette": 24696,
  "##gf": 25708,
  "term": 2744,
  "breeds": 15910,
  "hatfield": 26853,
  "sbs": 21342,
  "chartered": 12443,
  "advocated": 11886,
  "##13": 17134,
  "##athing": 22314,
  "hidalgo": 24715,
  "curate": 27530,
  "##ʃ": 29696,
  "1899": 6166,
  "ᴵ": 1493,
  "##比": 30416,
  "[unused541]": 546,
  "matthews": 12351,
  "292": 25797,
  "longing": 15752,
  "employing": 15440,
  "ₛ": 1570,
  "chang": 11132,
  "defines": 11859,
  "##book": 8654,
  "ferdinand": 9684,
  "gears": 19456,
  "##8": 2620,
  "discussion": 6594,
  "arab": 5424,
  "##―": 30053,
  "burnley": 23028,
  "ツ": 1712,
  "馬": 1980,
  "holes": 8198,
  "bilingual": 17636,
  "booster": 23715,
  "chilly": 24222,
  "##inator": 23207,
  "[unused313]": 318,
  "nineteen": 11977,
  "charge": 3715,
  "ia": 24264,
  "jia": 25871,
  "inspirational": 28676,
  "##ally": 3973,
  "america": 2637,
  "centralized": 22493,
  "initiate": 17820,
  "[unused939]": 944,
  "olympiad": 25225,
  "groaning": 24781,
  "scarcely": 20071,
  "lively": 17133,
  "kylie": 9008,
  "[unused446]": 451,
  "tenants": 14665,
  "repertoire": 13646,
  "completed": 2949,
  "bavarian": 15097,
  "##mba": 11201,
  "disks": 23999,
  "##fm": 16715,
  "withdrawing": 21779,
  "wellness": 25860,
  "##bold": 27495,
  "rigorous": 20001,
  "[unused854]": 859,
  "stark": 9762,
  "formation": 4195,
  "word": 2773,
  "forums": 21415,
  "grande": 9026,
  "file": 5371,
  "handler": 28213,
  "impulse": 14982,
  "##●": 30146,
  "lbs": 20702,
  "exponential": 27258,
  "snatch": 23365,
  "dante": 9649,
  "##imo": 16339,
  "transformation": 8651,
  "protested": 11456,
  "hopes": 8069,
  "assessing": 20077,
  "reapers": 27733,
  "##gan": 5289,
  "exam": 11360,
  "penetrate": 19136,
  "##fan": 15143,
  "[unused134]": 139,
  "ship": 2911,
  "##ffed": 15388,
  "zipper": 22082,
  "sacrificed": 20268,
  "products": 3688,
  "##ר": 29811,
  "jockey": 13989,
  "sprawling": 24199,
  "[unused263]": 268,
  "rolled": 4565,
  "谷": 1951,
  "##28": 22407,
  "stating": 5517,
  "measurements": 11702,
  "wicked": 10433,
  "pool": 4770,
  "信": 1767,
  "ein": 16417,
  "postdoctoral": 29272,
  "##hler": 13620,
  "graphical": 20477,
  "treasures": 17605,
  "##drop": 25711,
  "effects": 3896,
  "weightlifting": 29305,
  "shandong": 25768,
  "[unused360]": 365,
  "illustrious": 26150,
  "historians": 7862,
  "פ": 1261,
  "1792": 13414,
  "equal": 5020,
  "dame": 8214,
  "either": 2593,
  "trevor": 8672,
  "carmichael": 23537,
  "vigor": 24474,
  "sure": 2469,
  "admission": 9634,
  "[unused319]": 324,
  "space": 2686,
  "displays": 8834,
  "acid": 5648,
  "festivals": 7519,
  "blame": 7499,
  "billie": 18210,
  "informs": 15670,
  "pilgrimage": 14741,
  "naive": 15743,
  "anarchist": 18448,
  "disputed": 11621,
  "elderly": 9750,
  "##anies": 28064,
  "nagoya": 24425,
  "ז": 1247,
  "gleaming": 18242,
  "##⇌": 30118,
  "[unused437]": 442,
  "##biology": 21685,
  "stride": 18045,
  "serbs": 16757,
  "competition": 2971,
  "shake": 6073,
  "grading": 26886,
  "sophisticated": 12138,
  "flower": 6546,
  "columbia": 3996,
  "else": 2842,
  "exhaustion": 15575,
  "mutant": 15527,
  "arson": 24912,
  "empowerment": 23011,
  "defiance": 19674,
  "[unused885]": 890,
  "ต": 1411,
  "##⇒": 30119,
  "pollard": 25513,
  "streaming": 11058,
  "56": 5179,
  "chronology": 17873,
  "juvenile": 11799,
  "##rne": 12119,
  "##ced": 11788,
  "compelled": 15055,
  "##ener": 24454,
  "dragging": 11920,
  "mated": 28795,
  "##sight": 25807,
  "##gree": 28637,
  "tasks": 8518,
  "ت": 1273,
  "talk": 2831,
  "indy": 18214,
  "##moto": 15319,
  "⇒": 1591,
  "公": 1772,
  "susan": 6294,
  "selections": 16310,
  "55": 4583,
  "tire": 12824,
  "presentation": 8312,
  "cartoonist": 19659,
  "lavender": 20920,
  "orson": 25026,
  "##oshi": 24303,
  "warnings": 16234,
  "marc": 7871,
  "##type": 13874,
  "##pati": 24952,
  "cameroon": 13841,
  "reading": 3752,
  "cooked": 12984,
  "##ʑ": 29703,
  "whiskey": 13803,
  "##tel": 9834,
  "residue": 21755,
  "orchards": 22976,
  "doctoral": 11316,
  "hugh": 6621,
  "atmospheric": 12483,
  "mp3": 23378,
  "upgrades": 18739,
  "intermittent": 23852,
  "carole": 24348,
  "formed": 2719,
  "scripted": 22892,
  "azerbaijani": 18325,
  "##imi": 27605,
  "art": 2396,
  "slope": 9663,
  "reflected": 7686,
  "past": 2627,
  "##jana": 18803,
  "wasp": 19411,
  "immigrated": 17352,
  "gone": 2908,
  "##nism": 28113,
  "economy": 4610,
  "replication": 21647,
  "sheep": 8351,
  "pontiac": 24538,
  "cigarettes": 15001,
  "##lane": 20644,
  "quota": 20563,
  "র": 1372,
  "loops": 15932,
  "persons": 5381,
  "takeover": 15336,
  "##ка": 28598,
  "congress": 3519,
  "##艹": 30465,
  "cognitive": 10699,
  "bernard": 6795,
  "wherever": 11210,
  "replies": 14054,
  "consular": 27326,
  "[unused784]": 789,
  "##evic": 17726,
  "craft": 7477,
  "##rrigan": 28706,
  "momentarily": 16032,
  "swam": 16849,
  "recognizable": 20123,
  "gathered": 5935,
  "folder": 19622,
  "##centric": 22461,
  "install": 16500,
  "dorian": 16092,
  "dominance": 13811,
  "gaze": 3657,
  "buzzing": 20386,
  "crusade": 16282,
  "rohan": 28605,
  "itf": 27682,
  "shoved": 7468,
  "##ra": 2527,
  "connection": 4434,
  "dvd": 4966,
  "##nn": 10695,
  "assumed": 5071,
  "yourself": 4426,
  "suv": 15620,
  "investigating": 11538,
  "import": 12324,
  "cracked": 9630,
  "##wer": 13777,
  "necessitated": 29611,
  "continue": 3613,
  "alive": 4142,
  "playing": 2652,
  "backstage": 20212,
  "securely": 28999,
  "we": 2057,
  "tugging": 17100,
  "1936": 4266,
  "marta": 18950,
  "already": 2525,
  "##cation": 10719,
  "runner": 5479,
  "adjustment": 19037,
  "courtyard": 10119,
  "106": 10114,
  "volcanic": 10942,
  "##lateral": 28277,
  "conceived": 10141,
  "blasting": 26239,
  "awkwardly": 18822,
  "fishery": 22880,
  "：": 1993,
  "reverted": 16407,
  "##wright": 26460,
  "conor": 20545,
  "##mler": 18602,
  "euclidean": 25826,
  "##boarding": 21172,
  "##quest": 15500,
  "hackett": 28630,
  "traversed": 27797,
  "##zaki": 18637,
  "##mada": 23574,
  "battalions": 10157,
  "basics": 24078,
  "316": 23980,
  "rwanda": 17591,
  "2a": 23409,
  "hailey": 21664,
  "honoring": 21494,
  "daylight": 11695,
  "clever": 12266,
  "mayors": 21941,
  "discussions": 10287,
  "ভ": 1369,
  "04": 5840,
  "attach": 22476,
  "priestess": 27677,
  "furious": 9943,
  "marshall": 5832,
  "##ance": 6651,
  "laws": 4277,
  "call": 2655,
  "island": 2479,
  "archives": 8264,
  "gem": 17070,
  "philadelphia": 4407,
  "convictions": 20488,
  "##helm": 24546,
  "chose": 4900,
  "##cel": 29109,
  "usa": 3915,
  "pigeon": 16516,
  "slated": 18517,
  "inline": 23881,
  "stench": 21555,
  "fictitious": 23577,
  "し": 1657,
  "hurley": 25124,
  "sasha": 14673,
  "abrupt": 18772,
  "μ": 1166,
  "##erative": 25284,
  "inexpensive": 23766,
  "fade": 12985,
  "sturdy": 23073,
  "##lok": 29027,
  "knot": 12226,
  "##mel": 10199,
  "petroleum": 11540,
  "parkway": 12602,
  "grown": 4961,
  "retailers": 16629,
  "##sef": 20106,
  "##nza": 16786,
  "[unused438]": 443,
  "captured": 4110,
  "elections": 3864,
  "awakened": 20256,
  "tagged": 26610,
  "spoke": 3764,
  "indigenous": 6284,
  "electromagnetic": 17225,
  "fivb": 28423,
  "45": 3429,
  "[unused993]": 998,
  "bce": 10705,
  "myra": 23020,
  "##iously": 19426,
  "restored": 5854,
  "implicit": 24655,
  "online": 3784,
  "imports": 17589,
  "performs": 10438,
  "mar": 9388,
  "309": 25048,
  "footed": 28856,
  "embedded": 11157,
  "[unused354]": 359,
  "correctional": 20873,
  "len": 18798,
  "四": 1798,
  "authorization": 20104,
  "001": 25604,
  "yesterday": 7483,
  "##egan": 20307,
  "[unused664]": 669,
  "boardwalk": 29496,
  "##not": 17048,
  "ʌ": 1134,
  "##entes": 26933,
  "galloway": 22372,
  "##oint": 25785,
  "##pine": 19265,
  "cork": 8513,
  "mono": 18847,
  "122": 13092,
  "##aus": 20559,
  "layne": 22452,
  "sidekick": 29240,
  "heap": 16721,
  "croft": 28983,
  "##ny": 4890,
  "##oned": 17799,
  "life": 2166,
  "##port": 6442,
  "gil": 13097,
  "ira": 11209,
  "##horse": 23024,
  "∨": 1603,
  "##nitz": 22792,
  "hire": 10887,
  "sympathetic": 13026,
  "##hesis": 24124,
  "##yman": 17906,
  "vicious": 13925,
  "jamaica": 9156,
  "##ate": 3686,
  "rebel": 8443,
  "toilets": 21674,
  "cinderella": 21686,
  "twists": 21438,
  "fae": 17282,
  "brno": 28634,
  "amidst": 17171,
  "burials": 23109,
  "farmland": 16439,
  "impatient": 17380,
  "stealing": 11065,
  "closing": 5494,
  "entities": 11422,
  "originating": 14802,
  "whorls": 25637,
  "##合": 30318,
  "adult": 4639,
  "depressed": 14777,
  "hinges": 25484,
  "##ই": 29885,
  "supply": 4425,
  "inquiry": 9934,
  "anzac": 29224,
  "employee": 7904,
  "##ss": 4757,
  "ultimate": 7209,
  "fei": 24664,
  "、": 1635,
  "##ghan": 22218,
  "sb": 24829,
  "##ules": 16308,
  "##aker": 22626,
  "drawing": 5059,
  "indiana": 5242,
  "orion": 18747,
  "investigation": 4812,
  "lebanese": 12592,
  "robust": 15873,
  "venetian": 15510,
  "tennessee": 5298,
  "chimneys": 28885,
  "##nged": 21558,
  "scheduling": 19940,
  "encyclopedia": 12204,
  "##sun": 19729,
  "sikhs": 26697,
  "maldives": 25059,
  "tango": 17609,
  "phillips": 8109,
  "[unused349]": 354,
  "##ido": 13820,
  "##}": 29642,
  "unearthed": 27422,
  "1844": 9730,
  "ec": 14925,
  "inspection": 10569,
  "##nus": 10182,
  "honesty": 16718,
  "concurrently": 15442,
  "##dding": 27027,
  "concentrate": 10152,
  "imprint": 15738,
  "substitute": 7681,
  "terre": 25170,
  "protestants": 19592,
  "##世": 30271,
  "dashed": 18198,
  "°f": 8157,
  "porto": 13809,
  "trash": 11669,
  "pleasures": 26552,
  "lazarus": 23623,
  "##ammed": 27479,
  "milton": 9660,
  "faculties": 18658,
  "maneuvers": 23802,
  "##made": 21565,
  "chaplain": 14011,
  "##berg": 4059,
  "auction": 10470,
  "[unused828]": 833,
  "biplane": 28686,
  "producers": 6443,
  "akron": 22735,
  "##gga": 23033,
  "##そ": 30186,
  "inadequate": 14710,
  "sex": 3348,
  "filthy": 18294,
  "##fine": 23460,
  "bureau": 4879,
  "threatening": 8701,
  "requesting": 17942,
  "things": 2477,
  "##cts": 16649,
  "yours": 6737,
  "117": 12567,
  "##hum": 28600,
  "ions": 15956,
  "16": 2385,
  "esq": 25325,
  "ethnic": 5636,
  "pushing": 6183,
  "van": 3158,
  "elongated": 17876,
  "computing": 9798,
  "go": 2175,
  "founded": 2631,
  "promising": 10015,
  "crossover": 16335,
  "hunters": 9624,
  "##orough": 26388,
  "##ruck": 29314,
  "cummings": 20750,
  "pinto": 25066,
  "locations": 5269,
  "saxe": 24937,
  "boyd": 12164,
  "verona": 20197,
  "[unused551]": 556,
  "clemens": 27277,
  "425": 23285,
  "rt": 19387,
  "shown": 3491,
  "##fication": 10803,
  "##ி": 29932,
  "##χ": 29737,
  "amassed": 22151,
  "##tton": 15474,
  "ᅭ": 1477,
  "allergic": 27395,
  "##llen": 12179,
  "nike": 18368,
  "darrell": 23158,
  "innovation": 8144,
  "statements": 8635,
  "put": 2404,
  "refining": 28596,
  "街": 1946,
  "badger": 24186,
  "absorbed": 9063,
  "caught": 3236,
  "joanna": 15730,
  "cleopatra": 22003,
  "justified": 15123,
  "nervously": 12531,
  "maddox": 22730,
  "##with": 24415,
  "##gong": 17036,
  "someone": 2619,
  "greta": 26111,
  "bacterium": 24024,
  "##cm": 27487,
  "clasp": 23465,
  "ב": 1242,
  "cautious": 17145,
  "chop": 24494,
  "reflects": 11138,
  "##jo": 5558,
  "domain": 5884,
  "devastating": 14886,
  "taunting": 29442,
  "propaganda": 10398,
  "nope": 16780,
  "[unused379]": 384,
  "politely": 16954,
  "hungry": 7501,
  "bond": 5416,
  "ferris": 23202,
  "mariana": 22097,
  "hasn": 8440,
  "[unused641]": 646,
  "kapoor": 17129,
  "bum": 26352,
  "1950s": 4856,
  "##avi": 18891,
  "bipolar": 29398,
  "nair": 22525,
  "##ひ": 30199,
  "##anov": 25417,
  "##ize": 4697,
  "dangers": 16796,
  "[unused515]": 520,
  "##par": 19362,
  "sweeps": 26981,
  "prank": 26418,
  "mingled": 25959,
  "reply": 7514,
  "mandarin": 15831,
  "animation": 7284,
  "glorious": 14013,
  "49ers": 18156,
  "moroccan": 17494,
  "dogs": 6077,
  "unnoticed": 22719,
  "blankly": 26344,
  "householder": 7536,
  "aeronautical": 25010,
  "[unused945]": 950,
  "##ans": 6962,
  "arcade": 10877,
  "trumpet": 9368,
  "isabella": 10323,
  "trailer": 9117,
  "##cio": 9793,
  "territorial": 7894,
  "detail": 6987,
  "lately": 9906,
  "invalid": 19528,
  "cut": 3013,
  "hunan": 27374,
  "conditions": 3785,
  "affair": 6771,
  "jacobs": 12988,
  "##nder": 11563,
  "##rwood": 20941,
  "kilograms": 18857,
  "catalyst": 16771,
  "earls": 27371,
  "vuelta": 21441,
  "##mut": 28120,
  "london": 2414,
  "headmaster": 16296,
  "##agi": 22974,
  "spectra": 29237,
  "astrid": 27376,
  "manufacturing": 5814,
  "##sten": 16173,
  "&": 1004,
  "destinations": 14345,
  "polite": 13205,
  "hygiene": 19548,
  "##izzly": 29266,
  "statistical": 7778,
  "1804": 13140,
  "afraid": 4452,
  "temporarily": 8184,
  "ag": 12943,
  "encourages": 16171,
  "##zon": 11597,
  "##ult": 11314,
  "##ils": 12146,
  "freaked": 22783,
  "standings": 11869,
  "million": 2454,
  "##ii": 6137,
  "##rica": 14735,
  "##cliffe": 18115,
  "embroidery": 29507,
  "##eras": 24140,
  "handwriting": 24149,
  "honestly": 9826,
  "★": 1620,
  "vary": 8137,
  "hindus": 18221,
  "counterparts": 14562,
  "dia": 22939,
  "guard": 3457,
  "kant": 26044,
  "risking": 26875,
  "[unused858]": 863,
  "docked": 25727,
  "##花": 30466,
  "napoleon": 8891,
  "principally": 16552,
  "quarterfinals": 9237,
  "redevelopment": 15582,
  "supplemental": 27024,
  "poppy": 19745,
  "##忠": 30378,
  "audition": 14597,
  "policy": 3343,
  "debuts": 26740,
  "deco": 21933,
  "dumont": 25830,
  "penn": 9502,
  "devote": 23313,
  "##lal": 13837,
  "definitions": 15182,
  "##aneous": 17191,
  "[unused651]": 656,
  "trait": 18275,
  "hume": 20368,
  "applicable": 12711,
  "predominant": 21047,
  "negotiations": 7776,
  "rushes": 18545,
  "allegheny": 21192,
  "amelia": 11556,
  "[unused531]": 536,
  "margaret": 5545,
  "bosch": 25936,
  "##row": 10524,
  "witness": 7409,
  "girlfriend": 6513,
  "supervised": 13588,
  "[unused17]": 18,
  "rights": 2916,
  "##gies": 17252,
  "eli": 12005,
  "ι": 1163,
  "cure": 9526,
  "♭": 1627,
  "delegate": 11849,
  "alternate": 6585,
  "est": 9765,
  "mouth": 2677,
  "[unused517]": 522,
  "bamboo": 15216,
  "##lization": 22731,
  "burnett": 13829,
  "##ard": 4232,
  "！": 1986,
  "martin": 3235,
  "overly": 15241,
  "##rum": 6824,
  "twigs": 27964,
  "khan": 4967,
  "savanna": 22323,
  "adopted": 4233,
  "##top": 14399,
  "terminates": 28790,
  "engaged": 5117,
  "joking": 16644,
  "unconstitutional": 20454,
  "##jia": 26541,
  "asphalt": 16295,
  "eastward": 17318,
  "##ज": 29855,
  "vols": 18709,
  "pie": 11345,
  "entertain": 20432,
  "##ल": 29870,
  "alternative": 4522,
  "gregory": 7296,
  "kerr": 14884,
  "uniforms": 11408,
  "##20": 11387,
  "catherine": 6615,
  "pursuit": 8463,
  "archie": 13255,
  "parasites": 23996,
  "fruits": 10962,
  "##note": 22074,
  "customized": 28749,
  "##graphy": 12565,
  "alternatives": 15955,
  "«": 1077,
  "vintage": 13528,
  "emir": 23434,
  "##dget": 24291,
  "calmed": 20869,
  "dvds": 22477,
  "powerplant": 19526,
  "debuted": 6006,
  "bilbao": 25427,
  "communication": 4807,
  "##tten": 25970,
  "tierney": 26198,
  "frequently": 4703,
  "[unused943]": 948,
  "##mm": 7382,
  "hopper": 20517,
  "thou": 15223,
  "dominican": 10104,
  "worm": 15485,
  "ں": 1306,
  "##山": 30357,
  "##ban": 8193,
  "##ocating": 27483,
  "implied": 13339,
  "mall": 6670,
  "valves": 17355,
  "dictated": 23826,
  "##ᴰ": 30028,
  "⽥": 1634,
  "##rt": 5339,
  "rochester": 10541,
  "51st": 26017,
  "1948": 3882,
  "pretend": 9811,
  "indian": 2796,
  "quadrant": 29371,
  "splinter": 27546,
  "1580": 28278,
  "das": 8695,
  "intersect": 29261,
  "jacksonville": 13057,
  "incredible": 9788,
  "hanging": 5689,
  "grit": 24842,
  "wipe": 13387,
  "##tov": 26525,
  "1400": 20652,
  "delivered": 5359,
  "dug": 8655,
  "##aa": 11057,
  "of": 1997,
  "##umen": 27417,
  "countered": 17970,
  "##icides": 22698,
  "runaway": 19050,
  "gt": 14181,
  "stint": 12116,
  "alaska": 7397,
  "pasta": 24857,
  "##tated": 16238,
  "ivory": 11554,
  "constituted": 11846,
  "compose": 17202,
  "##eye": 17683,
  "reconciliation": 16088,
  "mukherjee": 27040,
  "theology": 8006,
  "micro": 12702,
  "erin": 11781,
  "##ave": 10696,
  "scene": 3496,
  "curses": 23897,
  "ala": 21862,
  "robbery": 13742,
  "campuses": 13696,
  "dilemma": 21883,
  "disabled": 9776,
  "##¢": 29645,
  "melville": 20154,
  "correction": 18140,
  "##‑": 30049,
  "296": 27200,
  "allotted": 23932,
  "islam": 7025,
  "briggs": 15487,
  "counseling": 17041,
  "angus": 13682,
  "ب": 1271,
  "elizabeth": 3870,
  "halls": 9873,
  "19": 2539,
  "##ₑ": 30090,
  "##oi": 10448,
  "picasso": 22457,
  "palestinians": 21524,
  "place": 2173,
  "##ration": 8156,
  "##stituting": 21532,
  "historically": 7145,
  "trinidad": 11856,
  "prophet": 12168,
  "suffolk": 12291,
  "chronological": 23472,
  "restriction": 16840,
  "##gaon": 27073,
  "gesellschaft": 27482,
  "theatre": 3004,
  "evening": 3944,
  "##chon": 24561,
  "packaged": 21972,
  "fallon": 16443,
  "arsenic": 29596,
  "reversed": 11674,
  "connell": 17199,
  "mc": 11338,
  "litre": 16812,
  "ד": 1244,
  "punched": 11696,
  "taboo": 27505,
  "[unused149]": 154,
  "philippe": 11169,
  "rejecting": 21936,
  "enlightenment": 16724,
  "maverick": 27187,
  "usual": 5156,
  "##ant": 4630,
  "1984": 3118,
  "attained": 12754,
  "smiley": 27420,
  "why": 2339,
  "garland": 17017,
  "[unused730]": 735,
  "ʀ": 1127,
  "homeland": 10759,
  "spanning": 13912,
  "norris": 15466,
  "emilio": 18644,
  "[unused795]": 800,
  "wives": 10403,
  "assistant": 3353,
  "discussed": 6936,
  "##rva": 19146,
  "staring": 4582,
  "briefing": 27918,
  "maori": 12600,
  "assessment": 7667,
  "gore": 13638,
  "bunk": 25277,
  "##之": 30275,
  "payton": 28666,
  "papyrus": 29575,
  "turf": 14585,
  "strain": 10178,
  "organic": 7554,
  "linked": 5799,
  "##adia": 25205,
  "agricultural": 4910,
  "undo": 25672,
  "monica": 9018,
  "ร": 1417,
  "decides": 7288,
  "follows": 4076,
  "summoned": 11908,
  "fragrance": 24980,
  "##ped": 5669,
  "##北": 30307,
  "[unused645]": 650,
  "boar": 24187,
  "katherine": 9477,
  "persuasion": 27577,
  "reduces": 13416,
  "##hora": 16977,
  "synod": 15374,
  "firm": 3813,
  "brackets": 19719,
  "gabriel": 6127,
  "გ": 1440,
  "##hort": 27794,
  "[unused410]": 415,
  "##straße": 24967,
  "illustrated": 7203,
  "之": 1749,
  "puebla": 27452,
  "##rden": 18246,
  "bauer": 17838,
  "timber": 7227,
  "wrists": 12150,
  "##ড": 29896,
  "honolulu": 16598,
  "##у": 29748,
  "such": 2107,
  "##llah": 18599,
  "decca": 21079,
  "made": 2081,
  "population": 2313,
  "otherwise": 4728,
  "ᵍ": 1500,
  "encompassing": 19129,
  "taken": 2579,
  "crimson": 11466,
  "teacher": 3836,
  "inn": 7601,
  "clarify": 25037,
  "fortified": 13313,
  "wards": 11682,
  "trading": 6202,
  "beneficial": 15189,
  "tunic": 23002,
  "desired": 9059,
  "peaking": 13015,
  "177": 18118,
  "##ci": 6895,
  "noctuidae": 24893,
  "recipient": 7799,
  "hands": 2398,
  "postage": 22981,
  "fanny": 17813,
  "sooner": 10076,
  "handful": 9210,
  "aggravated": 25817,
  "barbara": 6437,
  "contested": 7259,
  "showcases": 27397,
  "technology": 2974,
  "invested": 11241,
  "noun": 15156,
  "bee": 10506,
  "##yi": 10139,
  "induce": 19653,
  "coli": 27441,
  "square": 2675,
  "dewey": 20309,
  "amber": 8994,
  "irving": 12415,
  "##ction": 7542,
  "plaintiff": 20579,
  "resembles": 12950,
  "1768": 19793,
  "armenia": 10110,
  "##47": 22610,
  "intensive": 11806,
  "back": 2067,
  "asleep": 6680,
  "##alle": 24164,
  "sport": 4368,
  "##omics": 25524,
  "sending": 6016,
  "commemoration": 22377,
  "indonesia": 6239,
  "##lusion": 24117,
  "##cula": 19879,
  "thrilling": 26162,
  "obituary": 20815,
  "##ta": 2696,
  "northamptonshire": 21367,
  "##low": 8261,
  "##kova": 18810,
  "##eau": 10207,
  "horsemen": 25431,
  "brewer": 18710,
  "chris": 3782,
  "tactic": 19717,
  "##tray": 28473,
  "shan": 17137,
  "meridian": 17984,
  "bisexual": 22437,
  "##3d": 29097,
  "frederick": 5406,
  "##xley": 20959,
  "been": 2042,
  "margin": 7785,
  "since": 2144,
  "weapon": 5195,
  "traditions": 7443,
  "bitterness": 22364,
  "shrimp": 20130,
  "reliable": 10539,
  "##idal": 16975,
  "poke": 26202,
  "bang": 9748,
  "savings": 10995,
  "[unused74]": 75,
  "wigan": 15598,
  "[unused190]": 195,
  "me": 2033,
  "##schaft": 26527,
  "pseudonym": 13881,
  "4000": 20143,
  "bahia": 22474,
  "##stones": 29423,
  "##witz": 15362,
  "##gate": 5867,
  "freak": 11576,
  "##ং": 29882,
  "broadly": 13644,
  "##eo": 8780,
  "(": 1006,
  "##mere": 13759,
  "sob": 17540,
  "resist": 9507,
  "##lining": 16992,
  "technological": 10660,
  "bays": 13933,
  "##yat": 26139,
  "freedom": 4071,
  "[unused556]": 561,
  "##iya": 8717,
  "##hi": 4048,
  "suddenly": 3402,
  "##stand": 21515,
  "kristin": 25130,
  "[unused657]": 662,
  "extensively": 8077,
  "bal": 28352,
  "selects": 27034,
  "##iel": 9257,
  "interests": 5426,
  "##lica": 19341,
  "buyers": 17394,
  "[unused253]": 258,
  "solved": 13332,
  "avery": 12140,
  "lok": 13660,
  "outstanding": 5151,
  "yorkshire": 7018,
  "##ー": 30265,
  "##physics": 15638,
  "##minster": 24431,
  "parasite": 21198,
  "bump": 16906,
  "stanley": 6156,
  "exist": 4839,
  "ding": 22033,
  "simi": 28684,
  "measurement": 10903,
  "##力": 30304,
  "burkina": 23089,
  "electro": 16175,
  "justin": 6796,
  "obsidian": 29042,
  "sun": 3103,
  "removal": 8208,
  "[unused662]": 667,
  "button": 6462,
  "##zzo": 12036,
  "woo": 15854,
  "smells": 14747,
  "purification": 28406,
  "stalled": 20659,
  "ᄑ": 1468,
  "##au": 4887,
  "scouts": 10158,
  "##bet": 20915,
  "emperor": 3750,
  "oversees": 22558,
  "intending": 16533,
  "teenage": 9454,
  "stan": 9761,
  "##dicated": 26022,
  "##oya": 18232,
  "flagship": 10565,
  "##unds": 26698,
  "soils": 13622,
  "parent": 6687,
  "accolades": 27447,
  "var": 13075,
  "compound": 7328,
  "vial": 28475,
  "forced": 3140,
  "destiny": 10461,
  "##dating": 16616,
  "concerned": 4986,
  "boroughs": 21413,
  "cardiac": 15050,
  "[unused497]": 502,
  "websites": 11744,
  "elbows": 13690,
  "##tson": 25656,
  "ticked": 26019,
  "xu": 15990,
  "hilda": 21589,
  "thanksgiving": 15060,
  "dramatic": 6918,
  "wren": 16255,
  "composition": 5512,
  "panted": 28149,
  "##ow": 5004,
  "exams": 13869,
  "##bbly": 24200,
  "pots": 18911,
  "seed": 6534,
  "rubbish": 29132,
  "merits": 22617,
  "lives": 3268,
  "##iff": 13355,
  "ghanaian": 27202,
  "##aster": 24268,
  "affordable": 15184,
  "dial": 13764,
  "##ova": 7103,
  "hesitated": 9369,
  "madame": 10602,
  "oversee": 17467,
  "hopping": 26397,
  "€": 1574,
  "nov": 13292,
  "williams": 3766,
  "[unused75]": 76,
  "aided": 11553,
  "liverpool": 6220,
  "symmetric": 19490,
  "affection": 12242,
  "1652": 28853,
  "suarez": 22551,
  "mold": 18282,
  "portray": 17279,
  "moscow": 4924,
  "alleviate": 24251,
  "archdiocese": 12658,
  "tess": 15540,
  "dissemination": 28170,
  "doubled": 11515,
  "##bm": 25526,
  "supplements": 25654,
  "nintendo": 10022,
  "##scia": 27210,
  "departure": 6712,
  "[unused752]": 757,
  "shirt": 3797,
  "##tain": 18249,
  "[unused574]": 579,
  "##shore": 19208,
  "westfield": 26584,
  "wilson": 4267,
  "xv": 15566,
  "collector": 10018,
  "##backs": 12221,
  "establishment": 5069,
  "demonic": 23170,
  "prohibit": 23469,
  "overs": 15849,
  "karachi": 15381,
  "##position": 26994,
  "southport": 27494,
  "つ": 1664,
  "fortress": 7841,
  "##asurable": 28329,
  "avoids": 26777,
  "##cast": 10526,
  "plymouth": 10221,
  "nos": 16839,
  "synonym": 10675,
  "release": 2713,
  "##feit": 21156,
  "nicky": 20158,
  "approx": 22480,
  "mommy": 20565,
  "uzbekistan": 17065,
  "clergy": 11646,
  "##ika": 7556,
  "##rb": 15185,
  "confronted": 12892,
  "gap": 6578,
  "kolkata": 13522,
  "kathryn": 20484,
  "ක": 1403,
  "##wear": 16689,
  "iihf": 26904,
  "skipped": 16791,
  "vietnam": 5148,
  "soo": 17111,
  "##bags": 26813,
  "desperate": 7143,
  "##sund": 25168,
  "[unused915]": 920,
  "##oria": 11069,
  "jealous": 9981,
  "figuring": 23218,
  "somewhat": 5399,
  "satire": 18312,
  "##inski": 19880,
  "[unused803]": 808,
  "topographic": 24254,
  "[unused324]": 329,
  "[unused622]": 627,
  "smallpox": 25765,
  "lankan": 16159,
  "##ᵢ": 19109,
  "258": 24398,
  "[unused422]": 427,
  "widow": 7794,
  "reprint": 25364,
  "smoky": 20629,
  "ru": 21766,
  "elect": 11322,
  "stature": 21120,
  "##ly": 2135,
  "guangdong": 21287,
  "drinking": 5948,
  "rb": 21144,
  "##zano": 24147,
  "prism": 26113,
  "blond": 8855,
  "safely": 9689,
  "oklahoma": 5858,
  "qualifications": 15644,
  "pear": 28253,
  "gonzalez": 10121,
  "##opped": 27288,
  "receives": 8267,
  "##nga": 13807,
  "barriers": 13500,
  "##eal": 15879,
  "bhp": 22245,
  "hits": 4978,
  "phoenix": 6708,
  "##mined": 25089,
  "background": 4281,
  "proprietor": 21584,
  "exploring": 11131,
  "dedicated": 4056,
  "1727": 25350,
  "[unused731]": 736,
  "elisa": 29490,
  "1930": 4479,
  "pleasure": 5165,
  "socio": 17522,
  "##ћ": 29764,
  "ultraviolet": 26299,
  "syria": 7795,
  "verlag": 14552,
  "housing": 3847,
  "complaint": 12087,
  "specialization": 28031,
  "comprises": 8681,
  "carved": 7844,
  "tucson": 17478,
  "speech": 4613,
  "branches": 5628,
  "triple": 6420,
  "elegant": 11552,
  "brooke": 11535,
  "111": 11118,
  "conduct": 6204,
  "##tama": 28282,
  "vanuatu": 27625,
  "1703": 28366,
  "solvent": 23735,
  "whipping": 23016,
  "antiquities": 21387,
  "comparing": 13599,
  "##dable": 20782,
  "bakery": 18112,
  "coyote": 20457,
  "[unused326]": 331,
  "1726": 28342,
  "hosted": 4354,
  "##relli": 22948,
  "300": 3998,
  "hammersmith": 28420,
  "astonished": 22741,
  "1957": 3890,
  "ق": 1292,
  "vin": 19354,
  "haste": 24748,
  "eccentric": 18080,
  "watts": 11042,
  "crosses": 7821,
  "moi": 25175,
  "roe": 20944,
  "ع": 1288,
  "abandon": 10824,
  "winners": 4791,
  "coalition": 6056,
  "colorado": 5169,
  "##bella": 21700,
  "##oom": 17650,
  "purchase": 5309,
  "items": 5167,
  "daniel": 3817,
  "##des": 6155,
  "##キ": 30227,
  "exchequer": 28889,
  "supplement": 12448,
  "⺩": 1632,
  "picture": 3861,
  "##zko": 29002,
  "effectiveness": 12353,
  "recounted": 22906,
  "timely": 23259,
  "dramatically": 12099,
  "vertically": 20018,
  "lied": 9828,
  "abbott": 14455,
  "bihar": 16178,
  "finger": 4344,
  "curly": 17546,
  "##mming": 25057,
  "1830": 9500,
  "1871": 7428,
  "somalia": 14717,
  "##≤": 30135,
  "make": 2191,
  "mongolian": 17855,
  "madman": 28441,
  "customs": 8205,
  "freely": 10350,
  "ip": 12997,
  "our": 2256,
  "activity": 4023,
  "−": 1597,
  "##listic": 27348,
  "sparsely": 24961,
  "custom": 7661,
  "reprised": 22598,
  "lodges": 26767,
  "##chin": 17231,
  "##scu": 28817,
  "##yx": 17275,
  "nine": 3157,
  "lastly": 22267,
  "romero": 18290,
  "ems": 29031,
  "fix": 8081,
  "crabs": 26076,
  "##lter": 21928,
  "[unused417]": 422,
  "malibu": 29047,
  "dir": 16101,
  "francs": 24313,
  "diamond": 6323,
  "noble": 7015,
  "##lein": 19856,
  "creative": 5541,
  "と": 1666,
  "baba": 14208,
  "##dina": 18979,
  "fruit": 5909,
  "##rous": 13288,
  "whispers": 11054,
  "##四": 30324,
  "121": 12606,
  "inventor": 12235,
  "noises": 14950,
  "drumming": 22980,
  "1826": 11931,
  "deteriorated": 20111,
  "ns": 24978,
  "delay": 8536,
  "alessandro": 17956,
  "threat": 5081,
  "sorting": 22210,
  "pounding": 9836,
  "conferences": 9281,
  "sarcastic": 22473,
  "##joy": 24793,
  "##tara": 27115,
  "parrot": 22530,
  "brings": 7545,
  "severe": 5729,
  "ensure": 5676,
  "nodded": 3368,
  "1785": 17262,
  "graphs": 19287,
  "samsung": 19102,
  "1941": 3874,
  "sighed": 5489,
  "puddle": 25081,
  "midlands": 13256,
  "##pton": 15857,
  "mas": 16137,
  "‘": 1520,
  "glucose": 18423,
  "##play": 13068,
  "##smo": 25855,
  "treaty": 5036,
  "##phila": 26083,
  "##romatic": 23645,
  "ya": 8038,
  "##rating": 15172,
  "##南": 30311,
  "ex": 4654,
  "damp": 10620,
  "garnered": 13056,
  "dil": 29454,
  "liga": 8018,
  "delegation": 10656,
  "collingwood": 20044,
  "estimate": 10197,
  "volunteers": 7314,
  "##vara": 24516,
  "nod": 7293,
  "mask": 7308,
  "testament": 9025,
  "cello": 10145,
  "delicate": 10059,
  "myanmar": 12620,
  "##ott": 14517,
  "710": 27671,
  "[unused28]": 29,
  "##zie": 14272,
  "marquez": 27320,
  "marty": 12578,
  "clone": 17598,
  "##jima": 19417,
  "ª": 1076,
  "35th": 20198,
  "grunted": 14922,
  "comforting": 16334,
  "paralysis": 26287,
  "still": 2145,
  "nucleus": 13502,
  "audio": 5746,
  "hell": 3109,
  "winged": 14462,
  "data": 2951,
  "zhao": 15634,
  "protected": 5123,
  "logged": 26618,
  "groom": 18087,
  "pearls": 21944,
  "forcing": 6932,
  "urine": 17996,
  "wildlife": 6870,
  "joey": 9558,
  "195": 17317,
  "captain": 2952,
  "barrington": 26469,
  "fulham": 21703,
  "♯": 1628,
  "##ricted": 20623,
  "##do": 3527,
  "##ital": 18400,
  "nakamura": 23981,
  "57": 5401,
  "social": 2591,
  "nic": 27969,
  "chores": 27091,
  "closet": 9346,
  "starters": 29400,
  "brink": 20911,
  "haley": 16624,
  "polling": 17888,
  "without": 2302,
  "sophomore": 13758,
  "swirling": 16499,
  "sci": 16596,
  "statewide": 13486,
  "gu": 19739,
  "posting": 14739,
  "##you": 29337,
  "##lase": 25002,
  "remarkable": 9487,
  "corbin": 24003,
  "prick": 24858,
  "bailey": 8925,
  "##or": 2953,
  "goran": 28356,
  "adolescents": 25947,
  "[unused647]": 652,
  "lease": 10084,
  "chile": 7029,
  "assimilation": 27574,
  "squeezed": 7757,
  "ac": 9353,
  "astor": 25159,
  "1689": 22685,
  "influenced": 5105,
  "athletes": 7576,
  "##xious": 25171,
  "っ": 1663,
  "[unused206]": 211,
  "guild": 9054,
  "batavia": 28917,
  "rana": 22175,
  "##etta": 16549,
  "1856": 8708,
  "schneider": 15159,
  "malone": 16321,
  "##nberg": 11144,
  "talent": 5848,
  "##lang": 25023,
  "##lster": 29576,
  "liquidation": 28763,
  "last": 2197,
  "haggard": 27912,
  "registration": 8819,
  "damn": 4365,
  "fathers": 11397,
  "##ku": 5283,
  "mcdowell": 25005,
  "sms": 22434,
  "investigates": 28062,
  "skylar": 27970,
  "ն": 1231,
  "entrepreneurs": 17633,
  "ghz": 29066,
  "grain": 8982,
  "fresno": 20840,
  "##ater": 24932,
  "##bird": 9001,
  "dino": 22412,
  "ध": 1326,
  "greensboro": 27905,
  "stone": 2962,
  "ugly": 9200,
  "9th": 6280,
  "temperament": 26270,
  "prequel": 28280,
  "sedan": 15134,
  "detection": 10788,
  "files": 6764,
  "disturbed": 12491,
  "flush": 13862,
  "শ": 1374,
  "impose": 17607,
  "loading": 10578,
  "five": 2274,
  "lever": 15929,
  "attic": 14832,
  "translate": 17637,
  "supernatural": 11189,
  "slaves": 7179,
  "solids": 26778,
  "21st": 7398,
  "moose": 17716,
  "##bi": 5638,
  "christie": 13144,
  "hunter": 4477,
  "##blood": 26682,
  "##ர": 29927,
  "[unused229]": 234,
  "moist": 11052,
  "maximus": 21692,
  "great": 2307,
  "democracy": 7072,
  "##oid": 9314,
  "celebrities": 12330,
  "phi": 13569,
  "##km": 22287,
  "brigham": 22727,
  "##ष": 29873,
  "[unused748]": 753,
  "portrait": 6533,
  "##ulated": 8898,
  "combinations": 14930,
  "regulated": 12222,
  "thereof": 21739,
  "bells": 10118,
  "hz": 22100,
  "hm": 20287,
  "pain": 3255,
  "##ique": 7413,
  "avoidance": 24685,
  "cinematic": 21014,
  "fray": 25975,
  "##щ": 29754,
  "destined": 16036,
  "pertaining": 20246,
  "chooses": 15867,
  "judo": 19083,
  "rob": 6487,
  "gills": 29468,
  "layton": 23103,
  "##ulia": 20922,
  "seine": 16470,
  "##rat": 8609,
  "premiere": 6765,
  "##sl": 14540,
  "[unused413]": 418,
  "enamel": 29484,
  "ו": 1246,
  "rubbing": 10137,
  "highlight": 12944,
  "[unused834]": 839,
  "[unused754]": 759,
  "annie": 8194,
  "vibrated": 27801,
  "[unused43]": 44,
  "sac": 17266,
  "yelled": 7581,
  "then": 2059,
  "blurred": 18449,
  "stares": 14020,
  "##inatory": 28230,
  "discover": 7523,
  "mango": 24792,
  "truss": 24224,
  "notification": 26828,
  "##ego": 20265,
  "##ter": 3334,
  "zoe": 11199,
  "contempt": 17152,
  "sour": 14768,
  "raked": 22438,
  "##lassified": 24938,
  "##anu": 24076,
  "##ᅮ": 30014,
  "torre": 22047,
  "diagram": 16403,
  "composers": 9929,
  "gillespie": 21067,
  "racing": 3868,
  "rhode": 9763,
  "##phy": 21281,
  "payments": 10504,
  "khalid": 21828,
  "##tones": 11115,
  "##′": 30066,
  "##ango": 23422,
  "mascot": 13314,
  "emergency": 5057,
  "[unused198]": 203,
  "##aka": 11905,
  "##vu": 19722,
  "penultimate": 25512,
  "oppose": 15391,
  "probe": 15113,
  "disadvantaged": 27322,
  "bach": 10384,
  "emmanuel": 14459,
  "bradshaw": 23762,
  "recession": 19396,
  "blows": 13783,
  "fingerprints": 27556,
  "[unused283]": 288,
  "shopping": 6023,
  "digging": 10443,
  "ハ": 1718,
  "plume": 26888,
  "granville": 24926,
  "centro": 18120,
  "##urized": 28405,
  "annexed": 13291,
  "27th": 15045,
  "##っ": 30189,
  "##nar": 11802,
  "roberts": 7031,
  "animator": 25132,
  "located": 2284,
  "[unused59]": 60,
  "tributary": 8914,
  "1702": 26776,
  "whereby": 13557,
  "##lind": 27164,
  "##anne": 20147,
  "ruse": 26307,
  "engraving": 23501,
  "[unused303]": 308,
  "##cend": 23865,
  "guerrero": 16938,
  "forsyth": 29434,
  "vortex": 23463,
  "angie": 14835,
  "sneaking": 20727,
  "1733": 27230,
  "dating": 5306,
  "accredited": 11459,
  "mitochondrial": 23079,
  "1840s": 19308,
  "duval": 23929,
  "wax": 13844,
  "paved": 12308,
  "ligament": 25641,
  "terraces": 25633,
  "nursery": 13640,
  "protagonists": 21989,
  "machine": 3698,
  "census": 2883,
  "giles": 13287,
  "italiana": 28059,
  "##urus": 20089,
  "swung": 7671,
  "elliptical": 27213,
  "speaker": 5882,
  "observations": 9420,
  "undergoing": 14996,
  "departments": 7640,
  "congressional": 7740,
  "lynne": 26938,
  "surpassed": 15602,
  "wwii": 25755,
  "##aks": 29243,
  "[unused123]": 128,
  "assent": 27195,
  "geographical": 10056,
  "rubble": 17538,
  "isabel": 11648,
  "resistant": 13070,
  "sheer": 11591,
  "genome": 13458,
  "##break": 23890,
  "anthropologist": 21571,
  "theatres": 13166,
  "1810": 11786,
  "[unused816]": 821,
  "##ɬ": 29687,
  "donations": 11440,
  "##rmin": 27512,
  "klein": 12555,
  "ョ": 1730,
  "þ": 1101,
  "marches": 20691,
  "mona": 13813,
  "saddle": 12279,
  "screaming": 7491,
  "controllers": 21257,
  "##cape": 19464,
  "lexie": 24123,
  "flu": 19857,
  "##rza": 24175,
  "[unused292]": 297,
  "lectured": 19206,
  "terra": 14403,
  "partnerships": 13797,
  "filters": 17736,
  "focus": 3579,
  "##hall": 9892,
  "getting": 2893,
  "subdivisions": 22095,
  "hastings": 12296,
  "##lellan": 25839,
  "stance": 11032,
  "inflammation": 21733,
  "councillor": 10674,
  "emotional": 6832,
  "celtic": 8730,
  "dex": 20647,
  "##llins": 26655,
  "##pu": 14289,
  "##昭": 30394,
  "devils": 13664,
  "bahadur": 21715,
  "##ber": 5677,
  "grimace": 25898,
  "za": 23564,
  "##ywood": 26985,
  "abbey": 6103,
  "loaf": 27048,
  "thyroid": 29610,
  "##christ": 26654,
  "hourly": 21462,
  "wallet": 15882,
  "mastery": 26364,
  "depended": 17292,
  "##อ": 29957,
  "oxidation": 19577,
  "configuration": 9563,
  "##gra": 17643,
  "##sw": 26760,
  "overcome": 9462,
  "bulging": 27569,
  "paid": 3825,
  "##uing": 25165,
  "[unused567]": 572,
  "icelandic": 14024,
  "##boys": 24916,
  "enigma": 26757,
  "mammal": 25476,
  "guadalupe": 23529,
  "mentioned": 3855,
  "宇": 1819,
  "ebook": 26885,
  "continuum": 22961,
  "[unused772]": 777,
  "heart": 2540,
  "##otho": 29288,
  "##bourne": 11634,
  "reproduction": 14627,
  "wynn": 25328,
  "vessels": 6470,
  "lexington": 14521,
  "schooling": 14118,
  "rules": 3513,
  "killer": 6359,
  "voice": 2376,
  "##kins": 14322,
  "through": 2083,
  "mentally": 10597,
  "grassland": 20331,
  "humiliating": 28284,
  "characterization": 23191,
  "[unused611]": 616,
  "subjected": 13532,
  "shah": 7890,
  "shortage": 15843,
  "plum": 22088,
  "union": 2586,
  "associate": 5482,
  "blur": 14819,
  "ই": 1349,
  "dioceses": 26586,
  "rq": 28134,
  "##rini": 22612,
  "##most": 11800,
  "demeanor": 21745,
  "benefactor": 27398,
  "##hide": 26100,
  "47": 4700,
  "ch": 10381,
  "activated": 8878,
  "obscure": 14485,
  "choices": 9804,
  "orientation": 10296,
  "introducing": 10449,
  "drawer": 13065,
  "##mana": 24805,
  "##mie": 9856,
  "ruben": 19469,
  "convened": 19596,
  "stung": 19280,
  "cfl": 18830,
  "orleans": 5979,
  "asahi": 29465,
  "induced": 10572,
  "##tose": 22282,
  "##fusion": 20523,
  "encompasses": 13974,
  "chicken": 7975,
  "hug": 8549,
  "serra": 22737,
  "dances": 11278,
  "debuting": 24469,
  "##ght": 13900,
  "baths": 19692,
  "richardson": 9482,
  "[unused320]": 325,
  "donors": 17843,
  "anand": 18887,
  "yun": 22854,
  "hazel": 14015,
  "undertook": 12543,
  "##fish": 7529,
  "mcmillan": 27436,
  "shortlisted": 21353,
  "peninsula": 6000,
  "##itude": 18679,
  "pd": 22851,
  "engage": 8526,
  "syracuse": 11736,
  "breached": 25769,
  "##gling": 18483,
  "latham": 28737,
  "##eros": 27360,
  "faint": 8143,
  "hornet": 26795,
  "absurd": 18691,
  "roderick": 28326,
  "anchored": 14453,
  "[unused14]": 15,
  "dieter": 27976,
  "antoinette": 28429,
  "[unused355]": 360,
  "basha": 26074,
  "may": 2089,
  "##amp": 16613,
  "##ɣ": 29683,
  "[unused418]": 423,
  "spectators": 12405,
  "icy": 13580,
  "deals": 9144,
  "archive": 8756,
  "abnormalities": 28828,
  "buttons": 11287,
  "##wing": 9328,
  "questions": 3980,
  "bowls": 15220,
  "eric": 4388,
  "companions": 11946,
  "beloved": 11419,
  "render": 17552,
  "jars": 25067,
  "##ags": 26454,
  "owls": 22388,
  "gym": 9726,
  "holm": 28925,
  "心": 1849,
  "enclosed": 10837,
  "sanchez": 10568,
  "leverage": 21155,
  "1877": 7557,
  "underwent": 9601,
  "ส": 1420,
  "judicial": 8268,
  "corresponds": 14788,
  "smoothing": 27045,
  "##tt": 4779,
  "##mous": 27711,
  "feminist": 10469,
  "braking": 24427,
  "scissors": 25806,
  "bled": 23919,
  "lavish": 22689,
  "next": 2279,
  "##holz": 28094,
  "ajax": 18176,
  "jaya": 24120,
  "reunited": 11653,
  "complied": 26946,
  "prosperity": 14165,
  "jagged": 18187,
  "wilder": 18463,
  "stinging": 22748,
  "chichester": 23406,
  "##林": 30407,
  "era": 3690,
  "mesopotamia": 25889,
  "jo": 8183,
  "##gpur": 25758,
  "ronald": 8923,
  "##hun": 17157,
  "terminology": 18444,
  "twinned": 25901,
  "liam": 8230,
  "speaks": 8847,
  "##icient": 20132,
  "sees": 5927,
  "ᄏ": 1466,
  "banquet": 19032,
  "1974": 3326,
  "[unused6]": 7,
  "##bolt": 22803,
  "nostalgia": 26968,
  "predator": 15267,
  "teach": 6570,
  "joshi": 26645,
  "farming": 7876,
  "smoothly": 15299,
  "furlongs": 26602,
  "rancho": 18123,
  "pending": 14223,
  "##ratic": 23671,
  "##sea": 17310,
  "dmitry": 22141,
  "harshly": 21052,
  "valuable": 7070,
  "®": 1079,
  "muster": 20327,
  "notion": 9366,
  "rotational": 25254,
  "##な": 30193,
  "counterattack": 27835,
  "curves": 10543,
  "5": 1019,
  "principal": 4054,
  "banned": 7917,
  "##cot": 24310,
  "donaldson": 23164,
  "puck": 22900,
  "flexed": 24244,
  "bottled": 26071,
  "statistics": 6747,
  "##ee": 4402,
  "ancestors": 10748,
  "breakaway": 26321,
  "fundamental": 8050,
  "potatoes": 14629,
  "montrose": 24990,
  "summit": 6465,
  "servers": 14903,
  "youthful": 22446,
  "b1": 29491,
  "transient": 25354,
  "requested": 7303,
  "salty": 23592,
  "geneva": 9810,
  "specimens": 9908,
  "enzo": 26218,
  "towards": 2875,
  "allmusic": 10477,
  "vicki": 25424,
  "##harat": 28074,
  "yearbook": 24803,
  "trained": 4738,
  "malvern": 28082,
  "civilized": 25825,
  "microscopy": 29105,
  "modified": 6310,
  "oct": 13323,
  "corsica": 27047,
  "##iano": 15668,
  "##islaus": 25678,
  "implements": 22164,
  "[unused546]": 551,
  "adjoining": 13562,
  "atop": 10234,
  "flowering": 10902,
  "defining": 12854,
  "##bbe": 19473,
  "##ingdon": 29138,
  "discontinued": 8944,
  "jun": 12022,
  "##folk": 29284,
  "一": 1740,
  "spilling": 18054,
  "tna": 20108,
  "valentin": 24632,
  "bassett": 28303,
  "harmed": 25596,
  "##lson": 14881,
  "##naut": 24619,
  "uncanny": 28953,
  "feat": 8658,
  "##内": 30299,
  "needle": 12201,
  "lists": 7201,
  "hesitantly": 24626,
  "##amps": 25167,
  "arriving": 7194,
  "compression": 13379,
  "gems": 20296,
  "flats": 14201,
  "lengthy": 12401,
  "1762": 20827,
  "neutrality": 21083,
  "cheese": 8808,
  "harsh": 8401,
  "ᴮ": 1491,
  "arcs": 29137,
  "cosmetic": 25536,
  "bethlehem": 19360,
  "##urian": 29091,
  "failure": 4945,
  "passport": 12293,
  "fireworks": 16080,
  "controller": 11486,
  "morally": 28980,
  "##auer": 21126,
  "wave": 4400,
  "repeats": 17993,
  "[unused983]": 988,
  "rhino": 24091,
  "diffuse": 28105,
  "##出": 30300,
  "raids": 11217,
  "fixed": 4964,
  "blown": 10676,
  "turnpike": 17116,
  "management": 2968,
  "##rman": 14515,
  "##rion": 14772,
  "shout": 11245,
  "swim": 9880,
  "##zzling": 20838,
  "850": 15678,
  "spectator": 21027,
  "koreans": 24651,
  "rios": 25836,
  "levine": 17780,
  "ontario": 4561,
  "##lux": 25148,
  "##ount": 21723,
  "germany": 2762,
  "ranking": 5464,
  "one": 2028,
  "premiered": 5885,
  "deng": 26957,
  "##uary": 24384,
  "devoid": 22808,
  "saving": 7494,
  "zambia": 15633,
  "thoughtful": 16465,
  "~": 1066,
  "richmond": 6713,
  "quake": 27785,
  "trailed": 11145,
  "##inton": 27028,
  "bookstore": 21785,
  "boxes": 8378,
  "gigs": 20929,
  "permanently": 8642,
  "dowager": 20508,
  "##tv": 9189,
  "thud": 20605,
  "ok": 7929,
  "##lli": 6894,
  "不": 1744,
  "cleaning": 9344,
  "info": 18558,
  "prologue": 18877,
  "sloane": 17558,
  "temeraire": 23611,
  "qui": 21864,
  "ve": 2310,
  "##umber": 29440,
  "accompanied": 5642,
  "slung": 20078,
  "licensed": 7000,
  "tides": 22487,
  "trades": 14279,
  "thoughts": 4301,
  "##sop": 28793,
  "jessica": 8201,
  "otto": 8064,
  "auditorium": 11448,
  "##ers": 2545,
  "jakarta": 14426,
  "news": 2739,
  "thirst": 21810,
  "##gami": 26517,
  "pun": 26136,
  "ष": 1337,
  "##itis": 13706,
  "photographed": 16164,
  "ニ": 1716,
  "##mac": 22911,
  "records": 2636,
  "tricked": 24929,
  "ᄋ": 1463,
  "##zhi": 19436,
  "tested": 7718,
  "352": 28906,
  "contracting": 21012,
  "##jun": 19792,
  "bridgeport": 27986,
  "native": 3128,
  "##tility": 18724,
  "camille": 16675,
  "airlines": 7608,
  "##lined": 18194,
  "skulls": 21542,
  "298": 27240,
  "##．": 30517,
  "moderately": 17844,
  "develop": 4503,
  "##cript": 23235,
  "relational": 28771,
  "##nl": 20554,
  "deceased": 10181,
  "selling": 4855,
  "defending": 6984,
  "##itha": 26054,
  "duluth": 28218,
  "ه": 1297,
  "weaving": 15360,
  "pleistocene": 25080,
  "##lde": 17920,
  "classics": 10002,
  "retain": 9279,
  "ernest": 8471,
  "buzz": 12610,
  "aragon": 16146,
  "##tropical": 25528,
  "noteworthy": 19144,
  "atoll": 22292,
  "implementation": 7375,
  "boiling": 16018,
  "objection": 22224,
  "थ": 1324,
  "resorts": 16511,
  "filming": 7467,
  "##的": 30442,
  "novo": 24576,
  "authority": 3691,
  "nasty": 11808,
  "tenderness": 24605,
  "serena": 14419,
  "##glers": 25555,
  "ℝ": 1579,
  "excuses": 21917,
  "percent": 3867,
  "##reen": 28029,
  "gala": 16122,
  "primaries": 27419,
  "choreographer": 17334,
  "1980s": 3865,
  "[unused459]": 464,
  "spines": 20352,
  "##escu": 19434,
  "calderon": 28129,
  "disposed": 21866,
  "barton": 12975,
  "organised": 7362,
  "я": 1210,
  "lame": 20342,
  "[unused48]": 49,
  "##lth": 24658,
  "richer": 26108,
  "daisy": 10409,
  "moaned": 12557,
  "twentieth": 9086,
  "chords": 18495,
  "taft": 19911,
  "amid": 13463,
  "hip": 5099,
  "play": 2377,
  "notch": 18624,
  "tory": 17117,
  "respectively": 4414,
  "flint": 13493,
  "scents": 29254,
  "wore": 5078,
  "limp": 14401,
  "fooled": 25857,
  "protestant": 8330,
  "crates": 27619,
  "[unused941]": 946,
  "sequential": 25582,
  "##kian": 28545,
  "formations": 13197,
  "部": 1960,
  "discuss": 6848,
  "theodor": 21448,
  "repertory": 21099,
  "albeit": 12167,
  "##gina": 20876,
  "##hawks": 16043,
  "baskets": 25946,
  "archers": 23118,
  "ridge": 5526,
  "##cie": 23402,
  "craters": 27561,
  "herald": 9536,
  "oblivion": 24034,
  "1971": 3411,
  "vehicles": 4683,
  "snakes": 12971,
  "defect": 21262,
  "viktor": 13489,
  "humboldt": 19249,
  "rumored": 22710,
  "passion": 6896,
  "##ual": 8787,
  "crawling": 15927,
  "causal": 28102,
  "nanjing": 21455,
  "surrounded": 5129,
  "lt": 8318,
  "##osis": 12650,
  "##erly": 12561,
  "muriel": 27616,
  "laos": 15786,
  "throw": 5466,
  "reeling": 28515,
  "[unused299]": 304,
  "casket": 25864,
  "[unused639]": 644,
  "plumage": 28764,
  "sable": 23492,
  "forgive": 9641,
  "dialogue": 7982,
  "porte": 25927,
  "ब": 1329,
  "breaststroke": 28164,
  "dirty": 6530,
  "freshly": 20229,
  "defendants": 16362,
  "rotation": 9963,
  "maintenance": 6032,
  "doyle": 11294,
  "article": 3720,
  "granting": 15080,
  "[unused361]": 366,
  "[unused576]": 581,
  "[unused514]": 519,
  "drugged": 25483,
  "relate": 14396,
  "typhoon": 15393,
  "##quette": 29416,
  "medina": 15761,
  "approved": 4844,
  "##kawa": 13069,
  "slammed": 7549,
  "charlton": 17821,
  "browns": 13240,
  "∧": 1602,
  "indicators": 20390,
  "accusation": 19238,
  "bloody": 6703,
  "1882": 7131,
  "bandages": 27993,
  "resin": 24604,
  "shakespeare": 8101,
  "木": 1875,
  "cursing": 19752,
  "bo": 8945,
  "resources": 4219,
  "elm": 17709,
  "lahore": 15036,
  "sterling": 10933,
  "erection": 13760,
  "fatty": 19101,
  "##政": 30386,
  "##over": 7840,
  "ml": 19875,
  "breadth": 25291,
  "villains": 16219,
  "resting": 8345,
  "transporting": 18276,
  "empty": 4064,
  "attractions": 13051,
  "denmark": 5842,
  "fabrics": 25123,
  "##itation": 18557,
  "dressed": 5102,
  "[unused594]": 599,
  "intensity": 8015,
  "acidic": 24171,
  "##tee": 17389,
  "check": 4638,
  "[unused655]": 660,
  "toy": 9121,
  "thug": 26599,
  "stepfather": 21481,
  "##onus": 24891,
  "green": 2665,
  "tunisian": 22946,
  "selma": 28112,
  "光": 1770,
  "advocacy": 12288,
  "chip": 9090,
  "[unused375]": 380,
  "umpire": 20887,
  "##kari": 20224,
  "azerbaijan": 8365,
  "halves": 23672,
  "policeman": 14460,
  "##♭": 24102,
  "religion": 4676,
  "##ld": 6392,
  "sparrow": 19479,
  "tehran": 13503,
  "berries": 22681,
  "rattling": 26347,
  "natasha": 17399,
  "convinces": 19480,
  "carmel": 19443,
  "budge": 24981,
  "##dner": 28001,
  "##zuka": 22968,
  "physiological": 19389,
  "poses": 22382,
  "basketball": 3455,
  "##cycle": 23490,
  "mere": 8210,
  "meredith": 10635,
  "horrified": 14603,
  "stella": 11894,
  "variations": 8358,
  "happy": 3407,
  "whereupon": 26090,
  "orchestra": 4032,
  "1500": 10347,
  "privatization": 23966,
  "altered": 8776,
  "serene": 25388,
  "literacy": 8433,
  "angry": 4854,
  "sponsors": 13162,
  "keyboards": 6269,
  "event": 2724,
  "commotion": 23960,
  "frazier": 26551,
  "closed": 2701,
  "seriousness": 27994,
  "##channel": 26058,
  "##dry": 21190,
  "hardness": 23608,
  "ma": 5003,
  "striking": 8478,
  "##ination": 12758,
  "sergeant": 6722,
  "kentucky": 5612,
  "##try": 11129,
  "exchanging": 25620,
  "processing": 6364,
  "##mu": 12274,
  "sudan": 10411,
  "##ラ": 30257,
  "closure": 8503,
  "bran": 24905,
  "mani": 23624,
  "viva": 20022,
  "including": 2164,
  "##gon": 7446,
  "derivatives": 16942,
  "improved": 5301,
  "co₂": 20190,
  "outstretched": 21059,
  "commissioner": 5849,
  "candidacy": 17057,
  "motorized": 26172,
  "sarah": 4532,
  "exhibitions": 8596,
  "vaughn": 18220,
  "dick": 5980,
  "computer": 3274,
  "mueller": 26774,
  "them": 2068,
  "jerk": 12181,
  "emerald": 14110,
  "aa": 9779,
  "##み": 30204,
  "wilfred": 26026,
  "him": 2032,
  "stein": 14233,
  "[unused619]": 624,
  "##⺩": 30158,
  "##rick": 11285,
  "##amina": 27651,
  "clock": 5119,
  "##za": 4143,
  "portrays": 17509,
  "##icle": 25128,
  "441": 28015,
  "##anian": 26032,
  "absently": 21284,
  "browning": 18778,
  "semitic": 20604,
  "##vos": 19862,
  "bordering": 18299,
  "bitterly": 19248,
  "essays": 8927,
  "curtains": 14694,
  "plate": 5127,
  "denies": 23439,
  "flair": 22012,
  "engagements": 20583,
  "meeting": 3116,
  "trustees": 9360,
  "[PAD]": 0,
  "coil": 17085,
  "curb": 13730,
  "17th": 5550,
  "surrender": 7806,
  "forts": 15421,
  "educators": 19156,
  "##powered": 27267,
  "ю": 1209,
  "bathroom": 5723,
  "##將": 30354,
  "roof": 4412,
  "ashford": 26545,
  "vogel": 27063,
  "inevitable": 13418,
  "sk": 15315,
  "4": 1018,
  "valentine": 10113,
  "confronts": 17628,
  "flemish": 15427,
  "antics": 27440,
  "26": 2656,
  "borne": 15356,
  "niger": 16842,
  "bournemouth": 22882,
  "spirits": 8633,
  "曲": 1870,
  "med": 19960,
  "retiring": 9150,
  "registered": 5068,
  "aids": 8387,
  "ـ": 1290,
  "maya": 9815,
  "midfield": 23071,
  "ljubljana": 21588,
  "[unused725]": 730,
  "canberra": 13107,
  "carla": 17081,
  "rocky": 6857,
  "waterways": 21938,
  "arizona": 5334,
  "registering": 25719,
  "##chal": 18598,
  "pollen": 22482,
  "petersburg": 8062,
  "fundraising": 15524,
  "amusement": 9778,
  "customary": 16120,
  "bonn": 19349,
  "declined": 6430,
  "##oop": 18589,
  "resolved": 10395,
  "provisions": 8910,
  "medals": 6665,
  "descend": 18855,
  "norwich": 12634,
  "rebelled": 25183,
  "clip": 12528,
  "revelation": 11449,
  "tiffany": 14381,
  "goaltender": 21437,
  "joyah": 27098,
  "canadiens": 21247,
  "enthusiasts": 20305,
  "nathan": 7150,
  "edict": 24754,
  "##athy": 17308,
  "fremont": 22550,
  "##rix": 17682,
  "taxon": 28521,
  "##ை": 29935,
  "##ske": 17140,
  "##ф": 29749,
  "group": 2177,
  "##श": 29872,
  "242": 22431,
  "[unused976]": 981,
  "##avio": 28471,
  "rama": 14115,
  "caliber": 15977,
  "triangular": 14023,
  "seekers": 24071,
  "##ren": 7389,
  "curl": 15390,
  "##ear": 14644,
  "attitudes": 13818,
  "##ma": 2863,
  "[unused965]": 970,
  "##bes": 12681,
  "##inations": 22045,
  "spaces": 7258,
  "however": 2174,
  "newmarket": 22489,
  "concepcion": 27331,
  "省": 1920,
  "brains": 14332,
  "vienna": 6004,
  "presidents": 11274,
  "glad": 5580,
  "##rrado": 27933,
  "##zhou": 9791,
  "hoc": 21929,
  "108": 10715,
  "exempt": 11819,
  "metric": 12046,
  "reformation": 13708,
  "rains": 15811,
  "onion": 20949,
  "##cca": 16665,
  "bruise": 24851,
  "pedestrians": 24946,
  "tends": 12102,
  "weep": 27874,
  "##tua": 26302,
  "##wana": 21761,
  "louis": 3434,
  "george": 2577,
  "##phon": 20846,
  "striker": 11854,
  "sleepy": 17056,
  "ancient": 3418,
  "shrugged": 6345,
  "##eit": 20175,
  "grey": 4462,
  "harmonies": 28594,
  "##ught": 18533,
  "ras": 20710,
  "250": 5539,
  "feared": 8615,
  "observation": 8089,
  "##cous": 27199,
  "modes": 11583,
  "primal": 22289,
  "##eded": 19082,
  "naturalist": 19176,
  "peninsular": 22682,
  "ᵏ": 1501,
  "介": 1759,
  "##ᄉ": 29997,
  "susie": 23917,
  "emptied": 21764,
  "pipeline": 13117,
  "immortality": 20107,
  "teachers": 5089,
  "##85": 27531,
  "168": 16923,
  "morse": 17107,
  "##kr": 21638,
  "significant": 3278,
  "blouse": 18149,
  "stands": 4832,
  "##pathic": 25940,
  "##mann": 5804,
  "frontiers": 28750,
  "tube": 7270,
  "870": 28864,
  "sudden": 5573,
  "colleagues": 8628,
  "arrow": 8612,
  "##gart": 27378,
  "hypnotic": 28322,
  "doorway": 7086,
  "qin": 19781,
  "elise": 14251,
  "pietro": 15541,
  "shouts": 15701,
  "1959": 3851,
  "lungs": 8948,
  "lids": 26122,
  "manager": 3208,
  "##grass": 19673,
  "soviets": 15269,
  "derived": 5173,
  "denis": 11064,
  "clayton": 11811,
  "loyalty": 9721,
  "##司": 30317,
  "punta": 27377,
  "remains": 3464,
  "charged": 5338,
  "##rford": 26430,
  "votes": 4494,
  "[unused979]": 984,
  "descends": 23328,
  "flexibility": 16991,
  "131": 14677,
  "storylines": 22628,
  "weaponry": 22711,
  "clumsy": 22902,
  "erebidae": 25875,
  "swimming": 5742,
  "dinner": 4596,
  "exploit": 18077,
  "blonde": 9081,
  "##stein": 8602,
  "[unused917]": 922,
  "tactical": 8608,
  "124": 13412,
  "electors": 19165,
  "[unused785]": 790,
  "##rence": 24413,
  "##tila": 26065,
  "##erman": 18689,
  "##fy": 12031,
  "adaptation": 6789,
  "snow": 4586,
  "##fat": 27753,
  "terrific": 27547,
  "##ya": 3148,
  "statute": 11671,
  "heaved": 19970,
  "internal": 4722,
  "wiltshire": 17045,
  "contest": 5049,
  "##rrie": 22155,
  "breast": 7388,
  "gambling": 12219,
  "emission": 15760,
  "elves": 16980,
  "disguised": 17330,
  "enterprises": 9926,
  "clutch": 15357,
  "##chan": 14856,
  "nicknamed": 9919,
  "[unused363]": 368,
  "reputation": 5891,
  "43rd": 25747,
  "flaws": 21407,
  "an": 2019,
  "##ree": 9910,
  "planet": 4774,
  "unease": 27880,
  "ursula": 20449,
  "crate": 27297,
  "birmingham": 6484,
  "kata": 29354,
  "eliza": 13234,
  "claimed": 3555,
  "insurance": 5427,
  "rubbed": 7503,
  "##ʷ": 29709,
  "preferences": 18394,
  "walked": 2939,
  "credentials": 22496,
  "##lved": 26832,
  "##inian": 15830,
  "baptiste": 17329,
  "##dorff": 26559,
  "tea": 5572,
  "##真": 30447,
  "##balance": 26657,
  "ministry": 3757,
  "neck": 3300,
  "nocturnal": 23789,
  "titular": 12960,
  "jeans": 6312,
  "²": 1082,
  "decorated": 7429,
  "tyrone": 18770,
  "midland": 12240,
  "monarchy": 12078,
  "embarrassment": 14325,
  "marker": 12115,
  "$": 1002,
  "271": 25103,
  "##flight": 28968,
  "reyes": 12576,
  "weathered": 28445,
  "stellar": 17227,
  "married": 2496,
  "[unused376]": 381,
  "fulbright": 26695,
  "##ram": 6444,
  "agatha": 23863,
  "##arian": 12199,
  "crow": 11465,
  "edith": 13257,
  "##ζ": 29724,
  "oversight": 15709,
  "##ג": 29790,
  "denying": 16039,
  "lissa": 20244,
  "padma": 23731,
  "strike": 4894,
  "ingram": 23231,
  "garlic": 20548,
  "basil": 14732,
  "##urable": 23086,
  "viewers": 7193,
  "partition": 13571,
  "##bby": 14075,
  "##ran": 5521,
  "escorting": 23831,
  "journal": 3485,
  "shrink": 22802,
  "pledge": 16393,
  "[unused805]": 810,
  "##ciful": 26336,
  "15": 2321,
  "##e": 2063,
  "options": 7047,
  "korean": 4759,
  "alleged": 6884,
  "##pants": 27578,
  "##pire": 20781,
  "celebrations": 12035,
  "sneakers": 28130,
  "directions": 7826,
  "thereafter": 6920,
  "overturned": 17068,
  "fortification": 23050,
  "##fight": 20450,
  "sloan": 19024,
  "bbc": 4035,
  "perception": 10617,
  "##nburg": 22642,
  "{": 1063,
  "anatolia": 23747,
  "bids": 20723,
  "walt": 10598,
  "ম": 1370,
  "chances": 9592,
  "fitch": 26062,
  "fronted": 23291,
  "confinement": 21551,
  "##平": 30365,
  "recommendations": 11433,
  "acres": 4631,
  "tallinn": 21169,
  "rib": 19395,
  "##bai": 26068,
  "franklin": 5951,
  "pits": 14496,
  "guitar": 2858,
  "guangzhou": 18693,
  "enclave": 25867,
  "trajectory": 22793,
  "difficulty": 7669,
  "sufficient": 7182,
  "vineyard": 18621,
  "##boat": 11975,
  "##ش": 29825,
  "hush": 20261,
  "laundering": 28289,
  "ה": 1245,
  "prince": 3159,
  "##gation": 12540,
  "yes": 2748,
  "00pm": 27995,
  "##י": 29796,
  "lilith": 25576,
  "yusuf": 23495,
  "ui": 21318,
  "##nin": 11483,
  "mergers": 28585,
  "suitable": 7218,
  "handy": 18801,
  "af": 21358,
  "2010": 2230,
  "wrocław": 25160,
  "timbers": 26238,
  "skinner": 17451,
  "cinnamon": 21229,
  "ェ": 1697,
  "inmate": 24467,
  "glimpse": 12185,
  "sims": 18135,
  "##inn": 23111,
  "##ore": 5686,
  "kimball": 26659,
  "ᄅ": 1458,
  "##anto": 21634,
  "punt": 18975,
  "flaps": 26570,
  "♦": 1626,
  "calder": 19347,
  "executing": 23448,
  "##bies": 20536,
  "knuckles": 13513,
  "1755": 21417,
  "##hoe": 14490,
  "parades": 26635,
  "##uth": 14317,
  "∈": 1596,
  "researches": 27338,
  "sufficiently": 12949,
  "ʿ": 1148,
  "boil": 26077,
  "involve": 9125,
  "│": 1616,
  "##wick": 7184,
  "ist": 21541,
  "stemming": 29217,
  "##∈": 30124,
  "dusseldorf": 18160,
  "eliot": 16292,
  "c": 1039,
  "##rdon": 28176,
  "[unused295]": 300,
  "ы": 1206,
  "theirs": 17156,
  "heaven": 6014,
  "[unused893]": 898,
  "##tec": 26557,
  "##olin": 18861,
  "ほ": 1676,
  "[unused36]": 37,
  "nicholls": 27043,
  "echoing": 17142,
  "exploded": 9913,
  "flushing": 23519,
  "secular": 10644,
  "bequeathed": 27180,
  "established": 2511,
  "outside": 2648,
  "##cence": 29320,
  "火": 1906,
  "##yan": 7054,
  "mickey": 11021,
  "m": 1049,
  "blind": 6397,
  "##jiang": 21786,
  "ld": 25510,
  "1651": 29077,
  "crashed": 8007,
  "stamford": 22469,
  "pardon": 14933,
  "middlesex": 13654,
  "##rain": 21166,
  "##cd": 19797,
  "fungi": 15289,
  "##hab": 25459,
  "1850s": 16488,
  "##sson": 7092,
  "[unused894]": 899,
  "wendell": 24526,
  "##mori": 24610,
  "##asia": 15396,
  "household": 4398,
  "#": 1001,
  "scrutiny": 17423,
  "##mbled": 23931,
  "clocks": 20940,
  "blocking": 10851,
  "desperately": 9652,
  "forearms": 27323,
  "calvert": 24800,
  "plush": 27729,
  "spreads": 20861,
  "##re": 2890,
  "strewn": 25259,
  "herring": 22103,
  "rivals": 9169,
  "blankets": 15019,
  "[unused747]": 752,
  "cafeteria": 16673,
  "becca": 22140,
  "starred": 5652,
  "situ": 26179,
  "bases": 7888,
  "gates": 6733,
  "makeup": 5789,
  "assassins": 18364,
  "##ards": 18117,
  "##jn": 22895,
  "chickens": 21868,
  "click": 11562,
  "ir": 20868,
  "##gned": 19225,
  "tia": 27339,
  "reasoned": 24557,
  "pisa": 25472,
  "pentagon": 20864,
  "variables": 10857,
  "fern": 20863,
  "paws": 24392,
  "accommodate": 8752,
  "eyeing": 19285,
  "hypothetical": 25613,
  "filmmaking": 24466,
  "marry": 5914,
  "kam": 27829,
  "р": 1195,
  "##nem": 25832,
  "disabilities": 13597,
  "##llin": 21202,
  "##ony": 16585,
  "messaging": 24732,
  "epoch": 25492,
  "##い": 30173,
  "hope": 3246,
  "belongings": 20033,
  "##cote": 19800,
  "kildare": 24275,
  "considered": 2641,
  "##rro": 18933,
  "advised": 9449,
  "detective": 6317,
  "electronics": 8139,
  "მ": 1448,
  "handicapped": 26920,
  "cnn": 13229,
  "dub": 12931,
  "booth": 9065,
  "thorn": 16337,
  "18th": 4985,
  "sunday": 4465,
  "126": 14010,
  "stadium": 3346,
  "waterfall": 14297,
  "##あ": 30172,
  "##rot": 21709,
  "abdul": 10298,
  "earning": 7414,
  "shaggy": 25741,
  "##urbed": 29595,
  "水": 1893,
  "##erty": 15010,
  "lyman": 27587,
  "rely": 11160,
  "special": 2569,
  "101": 7886,
  "barbie": 22635,
  "hinduism": 19632,
  "sap": 20066,
  "bsc": 23533,
  "##bahn": 16052,
  "were": 2020,
  "meadows": 13524,
  "designer": 5859,
  "marianne": 19887,
  "##國": 30326,
  "trapping": 22977,
  "workings": 24884,
  "##body": 23684,
  "wedding": 5030,
  "thirties": 26313,
  "confusion": 6724,
  "arrangement": 6512,
  "showtime": 23811,
  "flyers": 16217,
  "helene": 20149,
  "kneeling": 16916,
  "yank": 23178,
  "##wise": 14244,
  "±": 1081,
  "##ᄎ": 30001,
  "northeastern": 8763,
  "coup": 8648,
  "mel": 11463,
  "veto": 22102,
  "genocide": 14052,
  "filly": 22062,
  "##ries": 5134,
  "conflicting": 19326,
  "surname": 11988,
  "bowed": 11489,
  "mach": 24532,
  "tensed": 15225,
  "jurisdiction": 7360,
  "gig": 15453,
  "graph": 10629,
  "##ェ": 30223,
  "vectors": 19019,
  "##ception": 24422,
  "fascist": 14870,
  "guitarist": 5990,
  "basal": 15191,
  "##shed": 14740,
  "ghana": 9701,
  "superior": 6020,
  "shot": 2915,
  "clamped": 18597,
  "crowns": 24364,
  "cab": 9298,
  "teasing": 12216,
  "##bate": 20179,
  "##uan": 13860,
  "##ury": 13098,
  "÷": 1099,
  "exits": 16639,
  "79": 6535,
  "##ption": 16790,
  "##dr": 13626,
  "¹": 1088,
  "rollins": 23502,
  "##bund": 27265,
  "chavez": 16860,
  "guilt": 8056,
  "quaker": 18844,
  "marginal": 14785,
  "nichols": 15746,
  "attending": 7052,
  "##aid": 14326,
  "##hrer": 17875,
  "terry": 6609,
  "cushion": 22936,
  "shooter": 13108,
  "##nction": 27989,
  "cloud": 6112,
  "rainy": 16373,
  "##ov": 4492,
  "installment": 18932,
  "acknowledges": 28049,
  "speculation": 12143,
  "pantry": 27796,
  "aden": 16298,
  "hazy": 26710,
  "shower": 6457,
  "theta": 23963,
  "deaths": 6677,
  "unsafe": 25135,
  "ignorant": 21591,
  "##ductive": 26638,
  "beef": 12486,
  "beetles": 14538,
  "##sley": 8002,
  "all": 2035,
  "lehman": 28444,
  "wah": 22894,
  "bentley": 15988,
  "[unused369]": 374,
  "##cera": 19357,
  "garion": 12523,
  "yo": 10930,
  "##ola": 6030,
  "personnel": 5073,
  "philosopher": 9667,
  "##rgan": 16998,
  "gasoline": 13753,
  "##上": 30268,
  "[unused901]": 906,
  "nwa": 15737,
  "galician": 28830,
  "havre": 28890,
  "ม": 1415,
  "imagery": 13425,
  "[unused633]": 638,
  "空": 1930,
  "陽": 1973,
  "exercise": 6912,
  "calculation": 17208,
  "doe": 18629,
  "[unused474]": 479,
  "syn": 19962,
  "##hiro": 18334,
  "timothy": 10805,
  "beaten": 7854,
  "whip": 11473,
  "growling": 22413,
  "加": 1779,
  "mori": 22993,
  "smeared": 25400,
  "##nger": 11392,
  "vomiting": 24780,
  "面": 1976,
  "2003": 2494,
  "##dav": 29045,
  "rocked": 14215,
  "symbols": 9255,
  "##mat": 18900,
  "rufus": 18316,
  "laird": 21964,
  "argentina": 5619,
  "saxon": 10038,
  "leak": 17271,
  "##yla": 23943,
  "flourish": 24299,
  "postponed": 14475,
  "[unused617]": 622,
  "##acle": 18630,
  "buckle": 22853,
  "accelerating": 29494,
  "review": 3319,
  "magnus": 10045,
  "##gr": 16523,
  "##trics": 29392,
  "jana": 23341,
  "scholarships": 15691,
  "presenter": 10044,
  "fuel": 4762,
  "collaboration": 5792,
  "deck": 5877,
  "graduation": 7665,
  "herman": 11458,
  "shen": 21882,
  "islanders": 16422,
  "##ła": 22972,
  "##vyn": 23487,
  "##rogate": 21799,
  "##ケ": 30229,
  "valkyrie": 26696,
  "ල": 1406,
  "endeavor": 23855,
  "intimacy": 20893,
  "八": 1771,
  "douglas": 5203,
  "makers": 11153,
  "mx": 25630,
  "##sum": 17421,
  "not": 2025,
  "finances": 16156,
  "[unused653]": 658,
  "phd": 8065,
  "shareholder": 18668,
  "cub": 21987,
  "georg": 12062,
  "soviet": 3354,
  "lacey": 16355,
  "forefront": 22870,
  "cyclist": 14199,
  "kruger": 27823,
  "roles": 4395,
  "record": 2501,
  "##iu": 17922,
  "ally": 9698,
  "thornton": 14630,
  "englishman": 25244,
  "carriage": 9118,
  "bruno": 10391,
  "amy": 6864,
  "mer": 21442,
  "betsy": 22396,
  "conflicts": 9755,
  "##ther": 12399,
  "progressed": 12506,
  "dungeon": 16633,
  "coke": 14492,
  "redistribution": 25707,
  "banging": 22255,
  "administrators": 15631,
  "duties": 5704,
  "jews": 5181,
  "##oue": 27872,
  "##chrome": 20366,
  "churning": 26765,
  "##ལ": 29971,
  "streamed": 18498,
[...]
